node {
  name: "input_TT"
  op: "Placeholder"
  attr {
    key: "dtype"
    value {
      type: DT_FLOAT
    }
  }
  attr {
    key: "shape"
    value {
      shape {
      }
    }
  }
}
node {
  name: "Variable"
  op: "Const"
  attr {
    key: "dtype"
    value {
      type: DT_FLOAT
    }
  }
  attr {
    key: "value"
    value {
      tensor {
        dtype: DT_FLOAT
        tensor_shape {
          dim {
            size: 129
          }
          dim {
            size: 129
          }
        }
        tensor_content: "H\272\321\275\347\231\n>\000J\336>\351\327L=\231\376\360=\263\201j=\205\304\237\275\242\224\277><@ <\030#\004\276&`\321<\202i\300<\271\263\032=\201\212\241=\335\"i\275\022\250g>\312Q\221<\013\355\014\276\372\224\350=\364\375C\276\251\021\243>\251\272\371\276Y\206\211<G\033\366<k\310C\275\321\200#\275yJ\323<z\373U?\350[\214\275\010\336\311\274\314+Q\275\277\013U>\355\262\304<\354\347\304\275\224-H=\255\343\222?\2562==vg\r>\0279\227=\350\370\260\275\321\353\370=*c_\276\235\032\220\276)\277_\274g\004\316<\027\003\211\275\325T\254<\004\324C=\352\314|\275\210\022\006\276\302\303\324\274\276\360\240<\022\262\244\276\224\031G\275\276\005\">\313\215+\276\323|b\274\203Q\210=\377\016\275\276\276\220P\276\261\233)=\2544\222;\347H\236>2\271\013\275\315\2038<\202\002\222\274X`T\277\206\224[=\355\357\374=\013\035\252=\265\311\210=\033I\217\273\017\033\212\276\350P\360<\031p8\276\327\325#\274\327bP=\341\007\245\276\370\026*>\305L\031\275\'A\026>\243\024\312\274\211\306\032?\264+\033>\202\031\273>\304\013b>?\332\364\272\326\214\254\274[\245A\275&\205\362<\330T\001>\227\n\316\275\227_\023\2774\312\300>We\232=\361\016X<T\037\320<\036A\200<\333\331M=\356q2\276\201\026\035\275\267He=\324Q\017>\330\370\214\275\252\265C\275\023 \007>\274\241\200>\250\361\340\275\244\357+>lS\366<v\037\230\275q\302r==h\221\277N\017\275=\001k\312\275G-\217\275\345\301\216\277?d\214\274\033\362y\275\321\026f=\263\033\235>\n\370\364;]\032\363=t:0\274X\357y<\220\312B=I\212K\274\010\300E\271\014\025\247\275>\316^\276\0133\207> \265\236<[\347\371<\216]b>\005\316\270=\2230\360\274\214!\001>\032\346\330<\256\271k>:\277\203=\000\017$\277\335\206>\275.x\227=\315\002\367\275\203\213\351\276\251\267\247\275\014X\201?\277c\251\277\300\237\316\276E\227`>\261c\337>T]\324<\206\241,=\310\331\340\274\374\274\024\276T\2511>\361\273\273\276\030Q\036\276\177$\262\2747\367\316\275&\274\242\275\314!b\273\316z\376=\236~\337=\345\375I\277\350\326r=\034\010\215>\225\366E\277%.4\276;\0024\276\233\336#>\244W;\275X\034=\275\224\034\353\275k\314\037\276\343\006\227=KF\303\275\251\237\036\276E\024\334\275c\016\255;~[.\274\231\213\337>\231\350\t\276\201;\276>qb\220>\207\230\306\274\"%\374\274\023\003\317=\236\225s\273\013\007\364=\261\317\374\275\3047\245\275-\200\314>(\022\006=>\307\030\275T[(?Z\264s>{\033T>\026\236\003\276C3\367=\216\361\004>\335\021\371=\3004\370=\310\226[\276L^\255\274\037\275\004\275\310\221\017>B\023\\\274\204\033\005>\336\257\222>\257)\027=+\034\217\276GZ\246>\335\300\006\277v\305=\276t\324\222=0\204\017\275T\306\324\274N\nj=\tf\266;\3510E\276d\243/>\033\n\246>\002\024\335\271\214|\342<\022v\377>\271\351\236\275\302\033\326\275\300w\223>\3705\301\275r\354 >\360\\\200>t\341\303\2758\372\371\275g\205\366\273I\025K\275\360Jn\276\\z\312\276\307\010\353=rC+\276\215\220\333=\323\377??\215T\377=*\345\017?\203\275\366\275\264a}?\030\323\206=\2479(\2767\275\320=\"\316\250\276%s\300;\253\001\273<\'\306\230\274\332\t;=a\225\317=\001\004\240\276\302\325\264\274\353\3116>\255Ua\276\250\242\224>~7\205>\350X\206=\346\262u>\271q\300=)g\334\2763y\265<l\317\322\275\346\263\214\276\347~4\275\246\246.>\275\314\025=0\353O>2\035\361\275\315\274\273\274\222{f\275\245\257c\276h5\345>\372~\327\272~\312\375>\030M\223\276\0316%=\023\333>=\003\002\345=\223\317\002\276\235W\303\273\347\357\373=>\234\257\275\361\376\351\274\302|\312\275\361P\006>\020\3475=\367\005\345\275\255\340\315<|\351\375\275\\#\301=\013d\017>\224\010\032;^\212)\276Yg\314\274\234\251-<\215nm\275\216\351\030\275\312x\274>G6\356\275=\277\037<x\243*\276b\310\021\276\266\253\330\275\330X9>\221\300\020<\266\036+>^\037\323\275?\322\361=\372d\217=v\030\020\275{\246\222?\277G\340\275:\213\372\276\274\344\361=\027\310B=\324\320\020=|\237\235\275\251\304Y>\266\\\031\275N\377\035\275S\214\377=y\210[>,\301\223>\231O\007>G\350\020;\224/\324;\233\263\320=;\344o\276\350\272U\274zr\241<i\001\335\276^%\n>\276 \007\277z\205\222>\253^\n=Xp\036\276\351\275\230>`6\303=u/\263=\221\350W\275\240B\002\275\234\000i\275\276\256^=\240\r\000>S\002T\276\357u\237;\241\253\220>\331\320\213<.]\363<q\257\n\275\270\327\212>I1\370\276E\t\204<c0\250\275{\325\303=[\250K>\276\373\"=\005\022\374\275\232O\264>\343\215\245<A#M\276\3649\376=\205\253V=t\017\"\276\325\006\337=\330\271\247\276(j\023>\360y\">LI\224\277\363\'\322\275\t\202\250\2762{\206\275Hn\336=\373a\014\276\311O\212<\276\365=?\\j \274\233\315E\276\224V\234=#\307\321\275\344\336?\274\221\200+\276,\320\343\275\240\275\201>\"\206\351\275Q\301\003=^\322e>\002\247\243=&R\222=\241=p>\2342\035?&y\324\275K\356\365=\245\376\312\275\311\277_>aK\300\276\033\212\022\276\000\210o\275\0350\243\275\310\337\007\276\"\037\245\276\371\362\246\2760#\273>f(\270\274\2150\343<A\230*=B\216{\276]o\034\276\003V\215\274S\255Z>L\027\223\276g\374%\275\222\204\343\275\346\264\272=\273\250&\276%\023\033>\203\345\021>U.\023\275\010:\250=\225.\000\274\300\274\213\276wO\007\276a\032\345\275;\275x=\236{\206\276\354< \275Y&!\276I\375\356\275i\026\267=\2248\034\276\313\215\035\276V\267\203\276p\361\347;\374\242\233\273\242\001\330=\221\225\370\275\235\200\272>%\000L>\245\002\036\274\003 \024>ZS-\275\321J >\034z/>\300\301\352;BL\213\274\034\030\215\274x\222\225\277\014\317\334\274&\265\327;\235\252\373=\317?b>\001\317\211=G\225\315=\314\245\263\275\276\307F\275%`\314=U;>\276\335M\365\274t\367\334\274\232\242\306\276\371\350\357=O\230\375>M\226\222>\322z\312\275gk\226\2755\322\244>\006\243\222;\355GM\276\277\340.<\211\2201\274\303\210\311\2759\254W=q\225\315\275MhM\276\301\371\206\273\021/\245>Y\335\016>\007\374\203;\017 d>\377wx>\205\030\262>J\'\022>x\210\237\275\023\312\353=\254\214l>z\3645\276\244\234D=l\033\236>U3\006>\333i7\275\226xs<\2625%>\375\324\006\276\260\221\341=!j>=p\203\222=\201\014\246>)\023\"?\376\024\007<\257Z\305=\357{\252;\031F\330=_\202\335\275`a\210\275\177\270\337\2743\r\260;\026O\240>\233\221\255=3\325\326\276\305\327\334\274\2267\333\274J\222\243\276\311x\227>\234\362\005>4u_=\355\341d>\226\"#>\020B%\277\370zb>\312-\357>&\004J\275\256\346<=\010V\016\2761\027\226>\226l2?\376{\370\275\274\306\220\275\336\204\252\275\"\255B\274\261\263,\276\217\021\270\276\274\333\310>\221GW>\325\250\006=\214\265\210=\035\214\r\276\304+\034\276{\035\251>h\323\254=\326#\377\275\323\334\214\274\351\031\355\275\025\020\"=y\270\305= \035\320\275\024N\317=\336\306\273\275s\356\254=\025\257\235=\262_Q\276\343\316r\276\246\230\037\275M\343\227>\251w\003\276X\370Y\274\002\257\311\273\215\271\337\275\271\266\r\275\220^\335\274\335) \276\035\255v\276\362\007\324=]\355\220<\024Q\217={\311\376\275\226\303H>us\243=\347\316V\275\311a\302\275\345v1\277\214\203\277\275\272TQ=m\003\332\273\322s\024>\342\265n<\267\210\'?\211\2629\275\n\220\\;|M\032>V\0349>\2439t\274\021}\335=c\327I\276v\266\217=g=\341=\177\227\301\276\212\261\353\274e:X\274;)\327\276-f^>\255\301\232\276S%\225>$\330W\273cG\347\275\203\210\235>\375e;\275\2423\255=1#\245;_\340\341>\034G}\274\r\234e=IdS>Q\034I\276\220\351\t=!<f>\204S\322=\365\274)=\202\2722>{\247\206\275\261\\\022\275\236r\344\275\270\376\272\275,\313\337=>\320c>\271\247\205\275\270\226\013\277\260\271\032>\2401\203=\016\327\225\277w\323\023=LfI;\022\273U\275\341(\354=5\323\226\275\331\312\223>\\_\016>\355\274\256\276H\001P\2757\355\206=/++\275\030\353\331=s\303\257\275C\243+;W\264\375=`.\362\274g\027b>\360\370\373=\237\202\032>\216/\252\273v\0131\276\223\3551\276?<\207>#\265\315<L\016i=\240\027b>\326\372\200>\253?\021\276U\237\270=R\300\221=\022Y\002\276=\030\201=\r\321\315\275J\317\261=\343\301\254;\270\232$\276\353\216\263>\325\\\004\275^\320*\275\314\355`\276j\352\355\275\177\274\247>\036ir\274fM\261<\244\002\031=\2430u>\3124\024\276^\312\217=\034\231\241>\370\263\026\276Lj\340\274\342\334\352\275{]t>\033\271\304=e>\t\276\337q\331=\336\003\202\275*y\247=>\354\003>\357\033\234\276\250c^\276\300\306\265\2751y\343\276\3063\231\275\332\230\210=\005:\356<\211\364|\276\207U\336>4\2143\276\334\003(\276\'\237i=\255\371P=\303\327\007\275\277\261\023>\320/\332\275D\233\327>\225\274\255=\302k\320<\342bz>\237c\302=\311\327@>\327\367\177>\312\326\212\273\373<?<\205\202\345<\\\221Q=\321\211A=G\342X\275\335\242\026>\336qX>\327W\365=\344i\275=/J\245>\372\275\006>\177\342\303=/\254\266\275i\277\312\274\255\035Y\275\361\325\216\276a\251c=\231\033H>J\003\222>\331\252W\274J\237\016\275\'R\321>[\265o\276$G\345\275\277\212\023<\331\240\256\277\364O\034\276Y\307U=\'\246\324\275!\036M\276\316\002@\275\032\306\341>2{U=\260B\306;2\324\'>v\221\014\2774\274\022<\221\324G>\246\247\263\275\303B\000>v\017\320>b)\240\275\032\260\327=\230s\031?\313B\005<\000\030\324\272\355\341\201=|\225\276=|m]>\035x\344=y\312\033\274\353x\245>MY|=\304O\207\275m\211\215\274o\016\302<f\230\037\273\301\354\335=\356\274!\275\036I\302\274u\326\256>t\317\361\274!l\301\276M\352\251=8s\233\276\225\261\342\275e\274i\275\272\"\n\276\352\235\215>8\305\215>]\271_=u?\207>z}2?(\371\266\276\0272\255>\277\266\224=\004LB\276\001\203E=M\345\332\275t\215\002>\217(\007>|\005\217\275\006\247S=\332\232\017\276c\351\376\273\255\304T\276d\217\312\275\321\'\223>\375\245\202>]E\010<zX\210=\221x\336\276\017@\n\276\314\221\\=\312QT>\030?\036\276\233\246 \2758*\345\275\275\354\243\275@\242\274=\355\340S>\316\316\357=J\247\037\275\365f\263=\'\016E>\277=\220\275\026\256=\276\t\363\225\275/b\251>^\022\027\276\372\255^\276\220\314S\275\322;C\276\341\033\360\275\225\030\022\276\220\245\024\276\247\004G\276\227\271\262>\223\014\215<Q\355X=\205^\347\275\031\037p>\006\347\272=\035 \231\275eu\031>\312\3711\276\t\362\276\275\364\244\326=\253\3011\275\207\035a=y\300\035\275\006D\237=\013J\211\276\021\362V<0\220\324=m\221\207>\016\305\032>\336\2621>k\371\256=\t\214\315<\360C\363=UM\212\276V\313\"\274\205k\210=^\276\233\276a\305|>\223\256&\272\r\343\227>F\035A>\306 8\275e\023\214>L\316\022=\244Ri>96\230<9z\t?/\201U<\213\007\035=J\365W>\202%B\2763\267c\276SI]>\307\213\250\276@2\022=1Sm>\272\226U=<\004\233\274\246\036f>\r\301\241\275|6\343=Y\225\365<<:\013\276Y\300\206\276\'lT=lB\211=\000\315\032\276\001\n\232<\304\324\214=\001\311\245\277\376\361\332=\007\365B\27450\002>\2337\341<\305;\372\275\240\035/\275\346\264\264\275\244\225\030\275\243\257\317=\345\003\265\275->\237\275\t\275\263=\335\3237;*\267^\276\006\244\327=]\353\022\276\352\026 \274s \257\274\\\311\024\276\006\217{>K]\334>\257\0319=\247N>>F\371-\277\277cr\276\302s\230\276\357\016\004=\346\274\276<1\002|=;\313\271=\177B\236>\022\214\252>\313\033U\276\320u\302\275\021\\\252=\210\300\246\274\371\220X\276vF?\276\224q\255>\231U\320=\346R\321=\026\0012;g\321D>\216\013\347\275\334D\221>\035\324Z\274\210\034H\2764\004\335\274\"\357\334\275\342\3521>|\317\200=\232 R\276;s\303=(\376\207\275\326\355\231=\242rN\276\372<\321\276\343\032\242\276#_\225\275\222\236\233\275k\346F\275\331\337r?O\300l=\273\2678\276<M=\275l!U\2763>+\276\234\022#\275S\207]\276\214\013\262=:\2245=\3354\347\275\232\350\244>z\003\263>\271\311\247=\304\375\355=\330\000\204\275\206\257Z;\017\336\177>\226}c<\370\215R=\237\362\010>\252\300c=\002\226\217\273cQ\377\273\340w:>.0\367=\"\017\242\274G$\023>\350\261\375\275\254\274\266\274\377\301\302=Os\300\276\3613\242\274\372\004\355>\n\272\251\276\337\027D\276^7B=\250\224\224>\005\177I\276\340\027Z\275\233\326\346>r\325&\276=\371\207=\212\276:;k\265r\276n\013\210\276\225yb=\201\325[=m;r\276\2453\265\275>W\266>\241\332j\275H2\211<U?\025>\r\020z>\017\033\246=\241pT\275\272}\264\275\256b\305=\374f\236?\346\365\002\275\235d]\275XG\332>\333G\007=\311/\022\276\227OL=TGR>\317\237\263\276\ta\354=:r\255\274\350\362\">\2373\232>o\032\017\276\260X/\275\256F3\2743!.\276h\205\345=]\017|\275Iu6=\244\274\022>\303\352D\275\007\253b\275\352\214\271=\251Ay\275\243\264d\276\225\273\027\276J\254\217\276n2\177>I\206\236\276\305\313\036=\246\317$>\204AW>\236\352\211\276\312\323\374>\332#\307\273y\214Y\276\275\250N=Q\261\204\275(gY>9\033\200\2754R\003\276\354\364\325\275)p%\276{\300\231\273\035\341^\276\225\001\262<\331\205\254>\027CY>\301\357\031\274\230u\346<\371\223\272=\226\376\201\276%\313;>\354+\251>\312 \216\275,\276\251\274\'\211\273\275\225\031\345>\323\351\362\275Q\025\004?\206\270\316=}V2\275\257\352\255=<d\226>\243\334\325\275\227\366\327\276\363\212\206\275\323\377|=\330\312\016\274[\035\271\277\331\034V\276t?\237\276\274\2473\276\232D}\274L\355\010\276\367\354C\2769!\214>r\270\370\2735\270<\275\273\245\256\275\343\027\202>u\3129\277:F<\276\354F\327=7F\271=\202\214\215\275A5\033?\177n\227\275gG\r\274\362;\351\274j7\003=\310\'I=\351\230\210=\300\325\201>\033M+\276zh\202\275q\232V=\013\007\013>\2525\354\276\250e\353=l\250\n<\246\016\217\274\031\200\021?:1\230\276\344\316\217>x\000k<\271\257\217>\014>\332=\036mw\275\205\021\206>T@j>?7\256>\207\312\014<B;8>\216$0>\350\362h=\207\221)\275fj\032\276\312.o\275\333\230\255>\207\267\204>\245\362\000>\242\'\313=\210)T\276\354\303\351=\3041\225>S_\256\275yx\330=\275O\373>\324\226#\276w,\207=W`\003>\010\225\341=v\373j\276\237\221?=\326\307\221\275\027\315\232>\365,\346=\315}\262\275\274\177U\274\363\304?>F\372#\276\235x\373\274\373\322\001>\275\360=\276\030\330\246=7A&\276\216\277\302\276\205\315%>\313\344\365<+\215\247\276c\306\202=P\000\265\276\344\251\305\276\023\026v\275d\304K\276\177\014\220>\314\037\232>\033\302\017>\0271\207>\352B\260\275\227\272\243\276\334\315\376\273I\037\231>\036j-\275t^F=\252\313!\276FF\372\275\273\313\016>\2752\016\276\227Rt=j\375R\275\315^\365;w\241]\276,\303\005\276\311\307j>\346\347\242=\r\261\307=\373i3\274\020\032N\275Kf\226\275[s\254>\346\005\314\275?\3735\276\200\345\367\274\026\360\005\276Z\243\026\276\322\231\034>\206\246\003\277\035\316\306=\025\314,\275\367\306\246=`o\031>@\033\304\275\210\205\000\277\224\037\227\275g\270F>\331\036\201\276\315\254\250>\267\026\351=v\"b\275\275\240.\276\037\226\022\276<~*\276 \226O\276\304\007\324\2758\213\222\2759\202\326>i\347F\276\3250O;\201\026\364>!_\005>\244\2419>\253\3631\273v\214\254\274\322^a\276p42\275\331\325\023=B)\215\275\260&\016>ZW\217\275\001\347\304\275\345\030\322>\356z\366?\373g\226\274T{F>\373=\360=\022\330\033>\233\'\334=j\017h\276\361Y\263\274Z*\320\276xn#\2750D\230>\313\t\023>\333\'\223>\214\321\024\276\300\312\024\275\335<\376=xy\250\275\324\017\200\276\373\231\010;\253<B\276\360\235\210\275\251V*=\241S\303=\353\2228\276v\336\314=\273\247}>\017\334\034\275A\317\234\275\033\234<>\347\352\246>\222\323\032\275#\205\020\2741)\262\275\311\201\020>\322lw\276\004\240\225\275\341\030\312\276\225iY=\205]6=\3214\243\275\275F\337<\316\"\274\275\326\220[\276\346E\014>\200T\003\275\331\t\316>ZL\233>\351K\021\276Q\313?\275-\203:><\335#\275y\356\352=\331\251D=N\010\216<P\2645><*%\276\204\340Q=\367g\332=\253\3346\276\204\227M\2764\361X>\370\340\252\275\2554\224>\2576i>;\307+=B\336\017>\352\250\262=\264o\256\276\232\342\377>N\373\022<\233\342.\276\3226\210=\222\231C\275\216\013[>\333\216R>l\204\350\275\326\250$\276\221\224\265\274\303.\273\274r\363n\276\361K\020>\243q\347>\326\270\350=\007U\013\276\253h\377=\'\000\200\276=J\253\2756\352\324\276U\216\316=\277\225\362\275\316`7;\361=\254\275\340\273\224=|\251\277\275\273[\241=\3660\340=@\226b\274\321\347\254=\372\006\223=O\331\000\277;4\242\276\243w\343\274fF\025>\022)\220\274D\203/\2761\231=>\2055V>a\004\221>\231N*>+\300B\277\256h=>\277@7>2_\246=\315\346\264\276N%q\275\207\202\243>\030F\020>\347\301!\276\361><>\337<\264=\236\375\231\275<J\\=\030zm>\260n3>\324[\017>\232\360\346\274\353\024\203\274<\337&\275\177\204\242\275B\025\037\277\214\023\020?\177\352\220=\251h\245\276\300K\246\275\301\022\274=\206\325\022\277\277\371\255\273S\240Z\275n\250\014\277\251?\263<I/t\275B\246\222>\035[\021>\340\304\272\275\202\360\323>\300\312\n\276\031,{>\030\256{<\246f\312\274\3100\014=\357\366V=\262\323G>Nrf\276\006\027>\2768\206!?\274\002\241\275\021Sw<\261\260\237>\350\236\031\277\225\314\004\276!Gh\276\341n\235\275`\200\366=\347$\271>\233\207(\276\'\246\265=\246];>\350\200\006>\355\270\231\276\013\303-=\3366\240\2761\310\'\276\025\rt=>`\311\275)F\324\275\250U\204>\267\230]\276ag\354\274M\306\000\277k\001\">\023\343\326=_\361y\276G\257\225>z Y=\311l\007=29\024>j\207\303=R\177\003=\307\033\372?X\351S\276\303\270\325\275\263\321\207>\331<\235>\007Ol<\025\373\213>\244\016\322=\362\322\360\275*}\265\276\304hn=-_\217=(\323Q= \363\006<\352B\335=|\256\267=\241\223\211\275\024x\017\2747\366J\276\tr$\274IRU\276\377\365\246\275=\035\200>\245\244\005\276\362\222\006>G\003}=\261\364\351\2746)V\276I,\177>\036\315\222=\332\311\030\276\250\272x\275p\026\267\275\000\346 ?\300\'\232>\310\266\305\275\177\021\314=\242vF\275\3255\255=%\314\302=\005=\234\276e\360\005\277\365c\020\276\316\231i=\272\274\234\276u\3354=5\201\245\275\370\005\027\276\243\366\362\275\333\260)\276(\037j?%\337\260\275F\264`=\001\\s=A\342\210>\365\230\030\276\327\211\375=\227F\336<]Bd=\234D\325=^4\007\274f\301f\275\241^\312=a\276\252;p39\274\352\032\274\274\243m\301=\337\225\377\274\216\223\024\275\356\320\205=Q\304*>\017\255\n\276\346\230\314=\247\206\004>\201\273\236=\211\022\321=\322\2160\276\252\237\007\275[Q\016\276\003\'\021\276\241C\302\274\233\251\360=be\223>\024\253\224=+\330\361\274V\363\251>\263\244\t>\005C\244<\035K+<\253i\3169\207\353m\274=\241A=bA:>\222\2467\276\247\313\373\275\275|\206\276\273\010\363=\350\350\220=,\3702>\243M\250=\222}x;g\253\254>^\344\262\275\374\326\034>\224_\203>\240w6\275FG\033\276\223\352\363>or\340<\223\364^\276\235\371\245<\275\356f>\024 7\276\223\217\026>\3269w\274\220!\315>\204\257\025>I\240\032\276A\3458\275\221\006}\275\0058.\276\244\243\021>R\247+=\262\035\341\275\203\273,>\313h\253\276\310\t\332\275\205\034\330=h\334\264\2762\221\032\273\260;\202\275\300nh\276\254=\236>j\207\265>\000HL=^\301M>\004\345\371\273\006\037\216=\337av\275\250\372\315\273]\235l\276\335\r\200=\230,\337\274\022e->^\215H>f\232\343\275\254\256n\276\325\200\271=\223\2114\275\010\'\224\276\303p?\276\252\320\267>\344\344\226>\3207`<\313\033\014=e\014\212\275p\253\310\275\224\306\215>T\2222=\345\013/\2769b\207\274c\'\305\275\311\333\035\277\266\367B\276\230\\\215\276 \206\317=\336\212o\275#\303\243=\311\3425>8\201\215\276\210\266}?\203\204\017\275\246 ,\276\005I\367\275.\312\006\276]\020\236\275\340o)\277W\tq=2@/\276\201\377\373\276H\022\025;\266\200m\275H\310\305\275\274c\364=T/\233\275\211\240\306>KEh>\232\216\334\274\366\315\270>X\360\276=22\227\275\031d\242>\22513\276\006\317\265=\235\205\251\273\355\365\340<\363\257D\275\025h,>K\311Z\276\373\216H>}\2548>\315q@>/xZ<n\251\030>\000\364\375=Cd)\276\365y\035\274>\276\001\275^\201\354\275\317\264\034\275#@\016\274-\256\225>c\222\202\276v\266Q\2758\334(>e\334k\276\226\356\216>\360\345\351;\265\006;\275A\217\262\275\371\305\201=7T\241>U\2121\2769\317H==\365\254>\270\233T=\311\341\305<<H\201>e\271\267\276\246o\035\275J\253s>V\251\246\275:\214\271=\200\270\\>\017\233d\275\2655\324\275\"\323\205=t\n=;\343o\\\276MG\025=\261L\255>a\344S\276L\274\014>_>#\274(f\255\275QfZ>:\213h\275\326\004(\275\305:\332=\027\350q=\004\320\276=\272\223\025>\373O\036>\204\227=>\200\013\023\277\233\257a\275&+\247=&\241\236\275$\303.\276\232\017U\274\315\353o\275Ul\213>v.\212>\033>\253=\201wy>\256v\001>\022\364\312\276\255\212\'>\361>\000<\311B\210>\344IP=,>\010\276\017$\213=UZ\211==H\014\276\263r\211\276P\324\247=j\177\275\274\010\347a\276\336\352\274=<\364\356>\303h\226=\013\222\360;\365\267:=\217\002\202\273\231\333\363\275\304\217\033>\3004>=\274X\n\276J\254\n\274\235\317\344\275\311\220\201?\343[\302=\304\337X>LZ\325=c\037\341\274\375:\243=\265L\322=\305\274\225\276:\220\273\276\202iv\275\351\312\257\275`\003\270=K\361\177;pv\212;\375\247\020\277\266\026\332\276O\006*\276\262\302\002\276\266\261\216\276\313-:>\311\032G\275\225\345\202>\230\335)\276\023\214q>\004\204^\276\213\307\326<9\265\377=\377\374\211\274\304\311o\2753@j\276\333\327\205\274\033j\273=\034\363g:#\224)=\250=/\275\326ia=M\200\352=`\364#>\351\377F>\315\323\t>\257\212\221\276`S\245<?\361\304=\032\033R\277\311~\242\2743\000\"=p\242\t\277x@\022?\242\2077>Q\262\217>z\2519>\312\013\243\275a\251\252>\364\023\371>\263\333\357\276@s\217;\250\017\204\273\030\253\341\275y\316;=\226c\326\275\376\304\202\276\357;|\276i\253\356>\360\317b>\332\033a=\255`=>\263U\352>\203\022\336\274\206\205/\276\322M\245\275J\365\376=7\220\177>\212\2576\275\311\236n\275\364\343\353>?\030\200\275\032\264\210\276A\0021=\000{\265;\236\210A\275i\014\370=\001\263\314\275\315\030\031?\233 D\275\'oM\276\327\003)\275\300\333\"\274\206\031\367<t \343=\240\320\274\276\017\305:\275H/9>\021\200\211\277c.\277\274\264\364\352=7\366\264\276E\236\020\276#\024\270\275g\270\271\276\207\332\215>\034\"\221>=-g=\231\325c>\316y0=\307\372\263\276)\310V>\361m\215\275\007q\034\277\007+m=\261\222\352\275\203Nt>V\324\016>\tv\301\275\377\271a<4Op\276\027\310y<\326\241J\276\014\205\222\276\343\366->\254I\200>\346\335\301=~\3243=\367\037\247\275\267\262\035\2761\241b>B\307\210\276\262\3761\276\374\3103\275\337y\250\275\264\005\333\272\360\323\231=+\321\200\276\306\"\275=\264\354H\275\365\036\260=\346h\360=\232\2775\276\355\332r\273;\204\007\276\255\2579\2767\247\217\277S/\254\274\367p\314<i\010\315>\224\364\r?g\363\334\274\355\334\317\275K\337I\276\275\301\273<g\",>-nm=\206\206\025\275\244E#>\360\014\330>e\237\251\275\020n\027>\326\002\234\275\203\326(\275VbP>\257\311n=J\355\225=cv\223\273A]3=^s\365\274\352+X\275(\351\217=\362\3521>\343\031\241\275%\2030>\216\222\\>\202\024\205\275\221\230\352=\253(\327>F\233\202\274\025\021q\275\324\005R\2769b\351\276?\232\217=\204\255\223>\346\254\003>`e\310\274\214\201\213>q\177\032>\225e\002\2768\344\263\271\t\237k\274d\354-<^\021[=\301\242\356>\327\000V\276\342\363\234>\245\204\245>\257\223\367;\315!\022=\335\2078>\016\250\324\276\007\352\006\276nx\346=C\326\254\275\234\365\262=\307\321Z=\276\341\335\274\274\332\334\275K7\246>[\311\214>\303\247\212\2768^\376<W\t\266=\266C\037\276m\0149=\013\327\315<\254K\224>\240\240\006?\r\024\320\2758c\010\275k&\322\275\216\336\017>\370\215$>\231B\003\277\366]\265<\205\366\261=\3139\250?s<\"\274\031kt=\257\026\311<\257s>=\252\272!\276\303|\323\275{\372\210>\007A\226=S\212>=\025\255\213>\311`\254=J\267\216>\030\307\307>\201\216\241=<x$?\255Dt=-\037+\276\005\237\357>\305\273\342=\r\367\257\275&#\224>\2078I\276\331\272<=\210\325M\276\241\330[=}Z\232>+\026d\275\'h\255<\365I\326=\037\247|\274;Y\244\275\216\304\275\276\007\274\351=\261\301\001\276\030\246\007\275\026*\323\275\2031\310>\342\014\324=\370\220\210=`V\301=\r|/\275>\n\242=\022,%>[\345\353\276\036p\037\276\3110\213\274tO\266=/#i\276\205\243T\275\273\227\237;f\033\205=\001\214Z\275!\177\017=\253n-\276\347\301\213\275x\224\225\275\3670\002\276\251I\271>uI\256\2758\235H>\026v[;\315\325\333\273\017d\300=\016)\002\276V\332\226\275\351\200\001>\224\341\261<e7\322=\016\002+=Tj\205\274\265\026\020\275\322\007b<st\260>f\336a>nw5\276\316\313\002>\370\242[=1\006-\276\000\356\332=\372\rV\276j\177\362\274]\316\265\275u\'\263\276M\3368?\035\023\357\275\322w\217>\372\235\301\275JW\013\275\207~\211>\346K\031\277Al\326\276d\372Z<e%\242\275\"\226\017\275\006=|=\235\211\323\275\202L\030\276\213\374\276\273\253\207\230\275U\255?\276s\240\336=\377\313U>\014I\360\274\026\354\252;\017\233\035>\262\030\250\275\034\364\026>\262\337\275> \032\211\2751\315\242\275O\247\231\276\016B\251=\303\001.\276,\316\335<\303:\016>|~!\276\354\265*>H\350q;\362v\026\277G1\001>\342\177\226\276\'K\010\275:\234==t\035\303\276\2079\235=\273Iy?mU%\276\361\357@>\210\270\207>\313\021\354=z\332\233=\366\272\242\276-\020\257\275\252[S\275 1\213\275\013\032\212>&)P>\3302\277=\256AX>\224M\330=\252\213\376\276\350Z\230>\022\363B=T\266\027\277r\r==6\344\224\275\355\372=\276N\375\250=\264\303\247\275Q\2139\273\333Jg>\211\332A\275\010\262U\276\214y\245\275\001\275R>4\357\350=\202\036l=\234\302\345:\311\t\031\276\r\356\010\276\333E\264=\202\344\266>\3254\032\276\003D\267\272\027_\034\276\0303=\277\033\021\244<\321c\324=\340\340\330=\030\367\313\274\014l\237=\335\250\337=\315}\222<\304\361=\276W\226]\273kvy\276\'\225\341>\376\327\233\274\243\273\234\274\305\305_\276\250\024#>\2724_\276i\030\026\276tr\224\276\366\325\211<\311\271g=\321\032\036\276\347\'\212\275[\235\244>\372\270\365=\334[f\275B\210\024>\354\323\030=B\344\306\273\360\265L=\322\276\032\276}\001a\273\262\006.\274\331\254\217=\207\243\244\274\313\243\343\274\356~L=;\031C>\036\357\267>\347\tK>\254mu>H\222\264=\031\256\327=\366E\255=\325\232\234\274\311\"\006=\264\276\266\275`\025\216\276\205\324\255<\314\262\225>\313\254|>0\364f\275_\224\277>Q\245\255=E\030\304\274Y\200N;\366\357x\275\220R\014<uVp=\021-$\276\376.;\276&\305\022\275\n\031\354>{\370\366\274\t3^\274\212\001\t>\274\014\027>\0322q<\313\247T\276\014\202\233\275>h\t>\237\005\337=\267\016\333\273\'/\300\2757\004\033\276\365\020\226=\327\276\210\276iO@=\302Y\221=\333/,\276(\377\306=\214\320\312\275\202z\274>\227\314\207>\360\350\245\275!G\n\275_\347\353\275\322?\200\276\r\233\336=\263\335\367>\250\355\300\275\374KI>\\\253\021\275C\335\315\275Z\322\350=\356\035\275\274\316W\360\275\200x\360;.B\240\276\002\275\233>\311\346\016\276-:\333=\304\335;>QW\313=\337W\356\273\311\244\230=\362\255\023=b\267\t=\223\3342=`\366\007\276\026\262 \276\376]->\324\327\006\276\r\031\001\276\tU\261\276\220\021`\275\0242\200\276{Tw<\310\202j=\207\253\031\276\216\307C=\306\244\017=P\235\243<i\203\253\275k\t2?\032\370b\276\306h\010\276RZ\017\275\270\357\262\275\235\256\034?#\367\250=\000?m\276\216e\274=l5P\275\315\331\254=tBr>\265\027\003\277\014\332\000\276\314\324\203\274|\213\257>\331\000\376\276\326D/\275Oh\216=AT\225\276\036\372\264<O\305\205\275\363\222\031\276EYB=\324P\223<s\032\256\275~\302\253>\207Ij\276\240\3539>\251N\335=\202\010\306\274\032\341\034>2\3655\275^\270\241\274\266+h>\276X\362<\030\373\325=\374\376_<\\\362\013=u\272`\275w\177\331<\017tU>*[V>\007\364\210\276\374\370*>\301\342\224\275)\204\347\274vCs=\267V\"\276h7\322\274\350\312\222<\301\232\333\275\256\355\321>P\266\356<Y\'\224>\336\317`\275{\244\247\274\310\200\367>\351\241\250\276\006,\226\276\345\246W<\252\320{\275\271\311\216\274\004\237r=\254\021\014>\355\200y\276\005\337\021>\271d2?s\235V>\355\322\261<\340\200\217>\016\247\031\275\'\371\376\275\324\232z>\032\203\274\275aZ\344=eJ@>\323\335s\276\214\215\232\275Z\310\356>\224j\231<\033\036P\276t4S<\203\016\004>(\030\023\276:\014\320=2\311><\233\002\372\276\244\3142>\352\025-\276\227\323\036\275T\241N>\202H\245=\311\241\340=Mx\005\277\301\327\026=\276\250)>\316l\347<\252\362\330;=a\251=e\301\000\27704?<\340>\224\275\312{\243\276E\016\207>\201\244\242>\216\274p<\305\303X>\037\t\256=\211\366\250\276\213\r->x\303\352<m\3467\276PlO=\232\332G\275:\254\t>\243_\322=\026\315!\276\232<\376=\347\3667<\324\"\304;$lO\276kM\016\276ZD\r?\023\226B=\026\010\272\274\255\214=\274\224c\272\274|\3114\276\227\266\344=\253z\257>\222Z)\276\314\333\031\275on\335\275\363\177\341\275c\250z;\211\342\203\275r(\313=E\317\362\274\"\234\232=\212\315\254\274-$\226\276m4H\276\250:\317\275N\241.\275\346\271D=-\207N\275\330\265\202\275\033\375\223\274\374\211M>:#/\275\r\274\n\2767-\316\275\364\r\246=\331\027\365<?\221\264=\210\277.\275\313\226\226>Hp\275=\r\213s=\246\211\023>y\260\233\275\214\375\267\275\023\224\021>\350\301\272\274\275\003\237=Z\317\025\273\374j\320<\373\350\020\275>\376=;\223\266\232>Llk>\310:C>\203\221\307=\263\337r\275D\213n9\3343\">\237\316V\276C\343\305\2745\017\201\275\307D\231\276\025m\005>]\273\034<\251\010\220>-\000g\275b\221\221\275\336\205\234=\221\273\261=\301\326)>\321P\270\273Z\036\267\274\016 \006\275\255Vi=\022\025\232\275\010gp\276Hu\026\275\367\221\317=\3346\272\275j\301\347;\201y\031>b\254\005\275\025\226P\2741\320\325<\016\211\252\275\230qj=\233\202O>{\212\001\275\032^\331\275\351\t==\213Q\226=\275\321\200\276\247xK=\023H\367=\203\321\031\276\246\030\311=\254\024\203\275\032\274D>`\035\r>)@\355\275*\353e\275)\347\305=\261\362o=WR\013>\001\032M\276\2319X\275\227\306;>\321k\227=\356E \275\233\371\242=\356\372m<\243\243\210\275\344-\212\275?\\\255\276\3206\210>A\306R>\212\030\030>?\312m>\346\340\212=\006\017\212\276\301?3>\245\316P\2745AU>\026\036d=\tX\202\276uv\351\274\373\303\036>+@\311\275KB\000\276\355\313\204>j\373\203:t\262m\276P\217c=\364\274\020?\340\376\272>\320\262\241<\262\362\257=[\003\232\2753\177\334\275\354\225q>\247\327\236\276\300\261\017\276w\014?\275\216\321\302\275!\271\231\273@\211\316<\247\3446\276H\252\320=\"\005\036\275\203\020\253=[\266\357=\265\227\250\275\374\177.\275\212\271\213\274\341\006\236\274_\333\007\276\214Q6\275P-\215\275\353\002\334\275\337\317%\275$\350_\276%\212/\276\371\227\261\276(Pg=>\346\t\275\302L>>+\307I\276\367t\274=0\336\340=\227\342\272\275c\342\037>\351T\035\275\025\016\375\273\305\177\242=(\273\234<\261,\276=\003p\'\275\360\324\013=\317\264\014\275\217\263;\274C\025\021=\'\330Q>@\362\032><\261\002>V-\006\276\347<G>\207w\256=\002\321\300\276#\340\370\273\r\'\262=\3047g\276\327\310\244>\032\236\205=\314\244\223>?\025\002=\017\215X\275\374@\360>|\001\224<\033\251Q\276+\207&<\034!g\275V&)\274\3149n=\020\263\323=\200\013\037\276\357\014#\276(\342\331>\264\345\"\275-\031\242=\023Y\201>\310%\264\273\204\005\314\2752z%\273|\251\212\275Up\035>\3634+>\272.\212\276\271\000\224\275\254\206W\275\371\346\307=\202\010]\276\207A\305<\211\306\030>P\353(\276|\013\363=\2217,\275\327\210\327=\2379\243>^\307\026\276\375S\033\275\347\340\026\275\362y\260\275\253e\242=\260\302\367\275\356/Z;\004\247\366=P\266}\274A/\021\276yU\337=U\254\007\276\377\337\305\273\023F\277\273}\252v\275h\305\215>Y7\232>Z\n\227=\224\224@>y\312\331=J,d\276\310\361\000>\273\205\270<\341\205y\276\230\314l=\\\001n;\300oc>PZ\306=\346\313\020\276\374\272]\276\341\273\n\276D\316\247\274\004\034Z\276\365\000\300\275D|\'\274\202X5\275\001\270\374=\233H\310\274\303\250\315\2756X}\275\241\307E>/\343]>\204\242\032\276\330u\241\275\241\245\361\275\302\223\027>\251\234\000=\262\236+\276\353\036\310=\221\277\264\274\222\025\266=0\235t<\370\002\345\276\026;[\276u\353(\276\336\t\257=\370\r\214\275@\021\271\274s<\030>B\270\247\275\350\212\273=:\007m\274\203\377\010\276\321\231\272=\226\031\247=\236\257\374<\274s3\275\246\315\023\276r\210w>t\372\224=\273kc\275\031\006\017>t*\222\274\016\356\355\275\321[\206=\277\306\025=\320\221\026=k\326\002>\007\210`=\362\343B\275T\235\334<\204m\036>\326\000U>\320\314\030>\271\372\262=\265\250\253\275Ll\314\275\304@\350=\377s;\276c\305\005\275IAb;\216\352\025\276\200\361\345=G;\035<\027\262\222>f{\235\275*o\030\2753\264?>j9\272<\277\252\316\275N\326\301;J\253\314\274f\314|\275\027\346L=:\231\013=/\200A\276\261\036#\274\221b\273>] T>\217\236\225<Q\304\031>\025\353\005=X^E\275\320+Y\275<\206\257\275\340~\305=\375\253\200>q\210\253\275\022E\351\275a\375\254>\277\272k>p\025r\276W\251\303<\353\355\020>}L\020\276\3321\265=\031\207>\275S\272\253>=<\\>B\232\023\276\333\265\034\275!\215\240=\270\031\023=F\317\272=\001CO\2764\222\020\276\na\322=\347i^=\235\223\264=\031\302\270=|\302\204\276\354d\025\275To\001\275e;\304\275{\345\210>\326\265L>\005xP=\346\357b>\206\211\217=D\222\024\277\215\241 >R\210M=\225\303\270\275B\264l=\205\241\203\276\354q+=\020\242\003>\177\010\217\275\3306(>\0235\"\275P\276n\274\222\347\202\276\010^=\275\200\356\006?\203\362\312\274\266\264\025\275\221m\367=^M\006\276\035\241\316\275\361)\335>\206W5>r\334\020\276q\025b;.a`\275f\302\244<?\340\036\275\214\221&?\014l\330=\306\301z\275\266\024\266=\300\001\306=\217\216\230\275\2338\037\276\027\365\315<>j3\276\200\322\306\275!H\372\274\333=N\2760\023^\276\300\271\266<gY\230\276\212\264B\276\301\277\214\276\341k\025;\264\371\267=\241\004\212>\235\003\016\276\201\232_>\207\2168>\332\246\017\275\236\360\'>g\004\226\274\302\320\025\275eo\265>\006\032\301\274\341\346\242>\177\014\224\274P!\000=\316\200\000\275(\315\235\275\302\020\002>\226p=>\205a\311\275\276\263\036>\262\371\210\276\2238n>\336\036\312=n\251\224\276\200\353\272\274<\2728\276\343\244.\277\230\361p>V\2436\273D\350\215>&O&>}x\241\275\336\347\037>$\002\304\275\022\337U\275\321\335Z<\327!R\275\306@V\275\254\231w=o\363\000>\237nO\276]\371,\276S\252\257>ay\036\27660\234=|\323\032>\247yS>\000\376\014>4\013\335>\230x\226\275\263\357\310=]g>>B~\033\274E[d\275\244\0069>*\313\212\275aQ\201\276\017-\331<\362\246S=l\315H\276\360\336\n>S\363\222\275Cp\244\276\021\211\250>_\273\"\276\300\305U\275\2024.>\246\247^=\225\321\307=\225V\2779\242~\016>\210\363L>B\362\304\2757\247\241\275\212=\276=m\357s\276\030\310\026\275\255\376\007\276\010\266\177\275\211\210\207>5\251\247>\023\214\016=\357N9>\226\346\256=\"\377\350=\335\304b<\021\251\214=Y\271\033>\273\233G=.\2775\275\317\216\272>Q\337\360=l\350D\276\213\241b\276\266\357\223\276\237\237\035\274LIt\2767W:\275O\232\263<8$\355=?\302\365<\027\333\354:\223\223B\274\350\016K\276\275s\334=\001\347\017>\267\274\007\276B\357\004\276\016\203\322\275\216\231\363=\031\007\370=\376~J\277\326\034\274=\351\322\252\274\346\000\244=\2550-=hd\334\276\30498\276\016*\345\275\034\262\332=Q[\305\275;ks\275\231\017\300=\017x\301\275\t\223\032\276L\2407=\2306\305\275Fa\361=\035\344\256=\027|\324\275Z\277\004>\340\234.\276\002\327\307>\r\362\204\275A\212`<\035<E>\352\2724\275\205\376\353\273\217\025\270\274\200\305\024<s\212?\276\224\375E>\335<\363<y\354Y\275\362r\333>\206\227H</bH>\024\365.>\255\002L>8=\357\274?p\006\2765N\255<\036r{\276\344\007\321\274\353S[=E\016 >\020\233\340=\355\236\r<\212\247\223>Zw\252\275\177\322\227\274~\234*?\350J+\275\375n\033<\217A\230;W\221Z\275\347\006\346\273Q\326,=\231\352\322\275\304\317\216\276j\303Z\275!5\303>8\341!>\000wA\275]h#>\032i\233\275\326\347\325\275\217\202\000\276~0\263\275u\016\237=\373\232\245>\337\214\326\274\2737\320\275\363\231\266\275\251\005\274=\206\017E\276\315\r\003=\013\305\342=\340l\002\276\223\017\004>Y&\035\275\376\022x>O\356V<\017SI\276\224LE\275\256\362$\275\303d\017\2763\307\">\017\336)\276<m!\276U/\014>\327\t\026=?\267\235;`\027\322=\327\r\252\276\317\221&\275\226E\344\274\244\355b\275\277\306y>2\335\036>y\220>\274\3103B>\373Y\312=]P\016\277\326\273\207>\202!\377<\002\253\322\276\177(0=\232_V\2756\213\373=\013!\342=\333\243r\275\014\223\016\276\261\310\022\276\330\210\243:T\312q\276Y\243]\275Z\244\035?/l\277\275S\031P=\234\t\237<\2575i=\333%\252\275>0\250>\362\\s=<hA\276\323\226\320\276\323\'\324\275\223E\022>\215\024M\275Y\302\217=\013,\337=|$1\275\265#\244=IE1>\367\335\213\2769\272\036\276L(N?\223\3554\275\377[\025\2760\010\310\274\357\r\005>.2\207\276\262cP>mL\363\275\252\207\030\276\360\006m>Q\017\212<x\023\037\274U\006\220<\311\020\305\275\245\321C>\346\032\010\275$\013\240\275\250$\034>\022\265H\275{\251\212\275\316\360\227>\257\t\231\2759`h<)`Y\276\272\'>=\213\240Y\275\007\320\212\275=\r\302>i\020M>\340=\223>\374wW>%\245\233>3\301*=%,\213\276\272\255\211\276\037}\273\274\201\003 \274\3305\361\276u\017X>A]\254=\260\357\217>\233\222\001\275\252\270O\275\315\212Q>\021\240\207<\230\354\275\275\215[\2029>c\320\274\252\257\205\275\365\033W=p\316Y>yT\026\276}\305\203\275\200\177\261>\261\314\016=|\205X=<\365\024>(\025\017\274\207\215<\275\032X\317>\347\016\256\275\035\302\222=hv\035>l-X\276\245 \232\275\313\017\221\274\365\256\203>\373\264\204\276\245\201\210<\337\344%\275\375\346.\276\026\310\252=\221\300\022\275\247\270\352\2757\212[>\366\225\355\275\240\243-\275BZ\243=G)+\274\222\2575=AdK\273\372\026/=\026\026\332=n\311Z<\256\354\004<\333\252\307=$&\212\276k(K\275\233\301(\276\340\354:\276a\333p>\rf\014?\300+\301={\n\211>\033\230\226=\372\347\275<\367zB=\204\355\371<o\337\223>\247\245k=\276JO\276\003\224\201<I\023&>\271\026P\276\377\236\270\276\216\275\246>\326q\017<\247.h\276\250kx=\207\354\344>Z\342\020>\036\352\214<Sn\223=\350l?\276&\232\305\275\363\304\315<\354\237\206\276\311-\024\276\223[J>\372\004\t\276\316\031\271\273\313\373\261=\303\255s\276u\277\343=\023\227U\275;\307\241=\364\014+=\030\036\260\276\337\273^\276\025D\326\277\230\030\324=\302T\232\276\377\377L\275t\346\257\275^\010\277=\016\354\225>yl\364\275O\214\004\2765\025\001\276L\205L\274d\315$>\363\035U\276e\231\346\275B\036;>\033\371\351=Z|\020\275\324\377&>\330\274\243\275]\321\311\275\347\025O>\321e\304\274\324\313\253?a$\274=.\277+=\317\031\317\274\312\274\217;u\372\263=\2367h>\031K\375\275\007\\a\274\326\032*\276\251\302\035\276\0204(\276/\275\226\276}\266@\274\247\205%\275SV\032\277\235L\204=\301\253t=\rP\221>_\3675>M\306\020\274\"Nt>\360U\n=\364\016\236\275S\010\021=\260\017\220\275\222\260\037\2750\315|=\313\r\025\276\242\340c\276p\272\372\275)\021\214>\262\322\000>\200\306\312\274\022\330\240=\376\177\244>\355-\004\276H\323\332<\277\\\231\275n>4>\351H\237>\255\222\031\276\3308\250\275\232\017\347>\"\364\227=K\321p\276\304\001\220=\320\034\033>-C8\276\201@(>M\356#\275\353\220\001>\260Ul>B\2519\276\336LE\275|K\250\274\277\225\332\274m\"\346=\364x?\276\361{\203\276\326\234I>j\031\\<\'\2160\276\211M\275=\227\'\207\276\235\374\006<\030\022\n\276C6h\276\317\005\207>\361\212$>g\2252\275,>h>\357s\245=\203A\214\272.w\311>\234L\203=\007s\024\277\235S<=\rl\233\275m\260\004=\007\221\314=\005\036\230=\323\205\321>m\367\364\275B\025\032\274\377\254t\276!e\001\276\362\205\374>\316\251c=\034q\214=G\216\351<\313!6\274\371n;\276e\365z>\300\332<>\305(\003\276\257\355\244\277]\226\275\274\226>,>\265\257\353\275\310\311u\275\257\263\235=\350\362\010\275\201\022\241=\316\261V>\271W\306\275\304\243\037\276\224|\304>C\215\212\275}n\221\275\224\360#\275\217\227M\276&\030H\276\t\274.\276zJ\267=H\257\033\276\242\025\202\275;V->\t\0327\275\302\017\205>\220\022=\275\264X\001>to\\\276+\251\327\275\212\353\033>\227`#\275$MQ=\301\235\006>\275\267w=\361\330\313\2761\0175=\037q`=9\316B\275\373b\037\276\371\177\356=\250\2647>D\371\006>X%h>L\267\203\276\014\315\022>\317\310\327?p\360\000\277\r\222\013\275n7$\275\334sR=\257Na>\353Z\320\274A\233\233>\227\336\351<\333\362\274\275j]\321>\257u\006\275\036\215k\275\261#\021\274\354\2214\2743\253R\275\t\202F=@\360N>\260\366\023\2762\353|\276\325\300m>K\254v\275\206\347\336=\226g\234>\000\003-\276|\354,;3h\002\276\347\331\264\275\264e%>\"\035\344=J\315\3709\320\340\342\275\033\361\206\275z\020(\276\027\257o\276T\314\177\274\301&\226>a\010$\276Y\202\016=;\202g\275\010\343\253>\225\266\261>\276@1\276\342sP\275\013\376\005>\363e\244=\243\3010>&\330\031\275\224\262\236=\331\345o>U\0351\275\250\000/=\216\225\272=\006\000\203=\204\003\252\275#q\222>\3310\232\276{8\236>\265\250\276>\007\3358>\010/x>\366c\245=\234\216s\276\rEy\275@\"i<p\361\022?\236\323#=t\337i\275/\324P>\202x+>\211ee\276\251\017\303\275O#1\277\033\036c;\247\373X\276mK/\276\242\257\262>[3+>p\340T=\341\336\333=\242\026l\276\305\323\350\275\374F\243\275!\322\033>\013\336\020\276?\035\244?\252\251\025\276SP\010> -I>\234~\223\276\315\212\304=\223$>\275!,\231=\234\215\177=\213\004\257\276\016]?\276\035S1\277\300et=I\206/\276\3077\005\275\327J%\275\211\025\246\276\255\302I=\257\003\016\276\363\013\364\275\213\367\203\276\215\330\222=\353?v\274\3319<>[u\023\276r\343\314>\023\267+>\3711S\275y\207>>\363\036\314\274\316\022X\273\216^\024>\205\262\357=?\263\223\276K\254[={6$=/\262\311\274s\332\326=\306\343\357=\300\244[>\215\326\000\277\335X#=\303\333R=\234\364\334\274V\016C\276\206\262)>\211|\317\274\362\0055\275\355<\n\277o\223A>\247J\024<}\334\224>\305\275\252>b\222\363\273\032`\272>\241\034L\276\363\347\307<2\243\016;j_\227\274\371\"\276\274|\035H=\201@\021>\250\253^\276\\\304\230\275\320\234}>\025\344\035\275S \210=a1\025>\030\216\266=n\377\323\275\025-\245>\177A\266\275J\302[>\304g\230>\303\304\377\275.$\304\274\203\335\246>X7\241>\341\234o\276qM4<S\235\177=\266\300\024\276\356\204\002>\210\241\032<7\026\205>(*\232=[x1\276\306SO\275N\364\265\276cU\303\275I\250F>\031\367h\276\027`\273<Z\037\002>y\345\251\274\222\2457=\032[\273=\234\016\032\276G\003\323\274F\003\r\276<?_=lc\213>\335\356\"<\305\361$>\033\307*>u\237\322=\037\313\003\277R\234\201>0\261n=\277)\200\276-\321\037=\257\2100\275X\310b>F(\253=\230\3246\275\304~\272\275\321i\307>\225+$\275*\366\177\276\321\331\'\276<\257\206\276\277\357\210=+\374.=\3150\242<\327v\361=n,\236\2753\014\322>\222W\302=\224\007\020\276/O\253<\261l\232\275fa\253=g\220\004\275\276\226\324=\375\253\306=\031c\312\274\265\014\257=d\215Y>\347R(<Up\026\276\003\341\271>\030\206\256\273\305\367\r\276\340\237.\275^5\320<\242V\r\276\345\304]\275\010\310\305\276\037\355\022\276b\275\325\276\273\336\217\274\034\334\306;\267\370t>~Nk\2764\243U>\274vd>:(\347\275\340N$>b7\357\274\312P\303\275\221y\311\274\313\3605<F\346\217\276HsZ=\346\303\314<\200\000F\275\300\221\216=\225_&>\361RC>\230\327H?\332\370L=\333\235\252\276\360^b=\r\324I\275\237\003\220\276\326\242\227\274\002>\022:\r\002M>\227\325\360=Rr\221=~\235\223>!.\263\275\025\022t\275\340x\310>Im\263=r\352s\276\311\350-<\257\360\022\275`\246>\275\240\353c=\026)\014\275\273\352\240\276El\372\273&\333\007?D\275h=0\372\031=\335P\023>\032\306}\273\351\034\025\275DG\210\276\366r\257\275{\346\233\274\252\364K>H\032,\276\006\270.\276\013\025\035>\034\033H\276#\253l\276\213\214\021=Y\334M>\346,3\276\033\247\324=x\205\003\276\365\254\037>\253\303A>8:\330\275\200\014 \274\367\306\240>@\353\365\275\242\346\246=#r\301\2753\r\225=\246\037\224=\210?I\274\350T\270\275\301\321\314=OO\273\276s#\373\274\237\207 \275!\010t\276\311\265\224>\202\336\300>\346\"F\276\350\'\216>\300\313\324=\001\251\322\275\345\215\023=\027,\243<\217G@\276\360\306==c\032\336\275[oD\275J\266\034>\226\377\201\275\3107I>\274\t\212\276\326\215\276<|}@\276r\253\305\275PKC?\317j\203>\222\215{>\217\337\370=4\346^\272T5l=_]==\323cW>}V\034\276\260\006\354>g\341.\275\341mk\274_]\362>\347m3\276Jy\322=<\224\344\274#0\270=z\255\377=\262\313\237\2769\023I\276\274\223x<\212\245\221\275\023\242\337<\301\010\220\274\037\034i\276m\225\242\275\306m\203>\371T{\276v\2360\276\352\t\277\276\267\305?<w\361C\275\235\361\223=IO|\275\203|\230>\270=\337=\206l\010=w\222\024>\231\226v<\226T\356\275\246E=>*Q\321\275\275Z\023?\302Z-<D\233I=\320\3170\275\266i\243\276\246Pc>\344\033C>\354e\320\276?\205\250>\322Ha?FR\301=\207.H>\220-\332\275\213*\005\275\241\306\275\275P\nX\277\034\257\314=1\037I\275n\225\220>\367\347^>\237\235\377\274&(C>\242\262\006\276\006\277)\2751\004\220;\315\357E\275\026\303D=T\"g=\343\330\200=;h\341\275\325\300L=i\353\255>c\307\216<N\310C\275D\3565>\306\327\245=s\203Z=\260\207~\276r<\211\275_\021I>]\367\247>\t\355\341=\374\237=\275\230w+>.O\000\275-\373r\276P\334\034\275\201\313\323\274t\241 \276\235\t\">\260\220\325<\355\253\343\276A\224\027?J\331\027\276\363\001\241\275nI\316\276\274\330\022\274\3010|=52\274\274\3709D\276\314\203\277=\236|\305<\214\350\031\275\277\222\242=\275\363\007\276\002\302t\274\220\000!\276\277\204\202\277\333a\256>\327\360=\276\r\324\033?6a\236=\272\234\311=\272-Y\276\234\271\251>\230\256<=\203\302\325\275dK\'=\341\035\007\276\251\315\203>\036S\274=vT\025\276#k\222>\241\321\177\276\020\021\023\275\025\307\222\276b<H\275\2767[>E\n\001<\314\305\225>`\303,\275\333\264\026\276u\360\014\2767\303*?\242\3505=\366\0250\276\300\024\342\275\204,\361\275\222\201b=\017\314Y\277\372\346\362<\037g\273=f\371\374\274\023\200\245=\241\246(=\366\330\314\275U(\005\276?\033\374\274\242\256\272=v\017\231\276\333\305\377\274\242\3447>\264\032\020>o\310q\276\220\210\257\276\215|\020\276^\273\021\276\344=\365\274\323\222\244>\244\261Y>}\3063\276\007Jh>\267B\226<\222\t\267=\315\355I>\351A\311\275\027l\202=\357h\013>\212\374l\275\332\223?\276j\r\331<y\322\256<&M\031\2758R9>|=\340=\247iu>\233\250\345>\273`\025\276\347\3443\277\312\223\014\276O\017\325=%\007r\276\260\350\310\273R\237\207=\2643\340>\332\326\324>\234\326\350<Y\023\222>\031\327*\276\314\363\305\275\345z)?\341\2514\275\2622\321\275&]\272\273\303\327\307\274\230\333\306\275\337\242\313<\320\300\200>\363M\234\276\026\0029\276\370\026\331>\233\255\326\275#\037\233\275\263\217\267>?\032~\275vJ\350\275\276j\335>\223\227\316\275\347\325\240<b\323\273=\026\274T\276\244D\252\275\356\276\274<l\312\331=\222sL\276\255r\014>\326\275\317=\r\354\032\2762\344\301=\371\267\277\275\324P\316\276\215\311\340\275\232CV\276N\024\224\274\213\257=>\323\270*\276FgK>\346P\221\276~BH=\230\006\272>\357\\\225<\375\177\310;3+\307=]\335\346;\240Q\032\274\3548\013>Bs\341\276%\341\223>\267a\034?d\347\300\275\033$\276>K\006\242=t\315\320>\315q\020?mx4<\357\373\321\276\253\343\203=\367\264\362\275\007w\223>\320!6>\337:\334\275He\214\276\327 G?\'\364#=\322\345\320\275\246+3\275\213\003\246>?\211\037>\244c\263\276\307\'\213=[\235\372<\242\013\275\276\002\017\323\275 \216v\275\225\334\t\276O\246\263\275\261\2755\275tT\220\274\335\340\334=pb_\276\025}\331=\320S\377\274Y\030\232=H\271\345=\217\273\332\275\234|!\276,\262r=\207\226\266=\031\204\025\277\345)\024\275\243\032(\274\372j\330\276KH\245\273\2653\217>\373\276\"\276E\211\206\276g\222s>\334M`\277\222;\260>\231;F\276\222\217\373>Y\327M>j~U?K\373\206=4k\215\274\305\321\236=\'x\r>\224\200\200>\177\334&\276\225}\236<7\027/=\377\321\032\275\212=\265\274E\244x\276\332\273x>1!\022\276(\354\026?K\021\266>\311\\\010>U\346G=0n\203\275\344\240k\274\324\t\331<rN\021\277\377\264\210>I\252,>\314~\224>\230I\203>j\357\200\273#Z\253?H!e\275N\203\022= $\211<(D\315\274\201X\021\2751\226x=\032\270\013>^\031T\276@\245\240\276L\360\032?{\327\231=\030BJ>\306lD>\000\333\337\275\036!<=R}o\275\300\\\245\275\314;\026>\t\345\003>\007l\323\275\036I\031\275\224\355\n?u|Q>\026\265q\276\267\357\204\275&\2259>\231\235*\276H\317\375<\353\001f\273S\000T\273\334\261\317>i8:\276\334\020\010\275\254X\020<\243\313\345;&M\246;\010L\224<\253\377\223\275g\335\010>\203i\267\275:5\027>\312\332\271=q\217\345\276\\\373\316\275\027\203\221\276\250\005\200\275\327=m>n\002 >mZP<`\266v>e.\316=\324\365\245\276p3_<\005\334>\274\2049\004\275).S=\2035\302\275\254\215y\276\306g\006>\334N\323\275\\\021\001\276p\344\326>\013A\303\275\305\300\303\276\341\201C=\352n\273>\305\032\235>\235\024:>\273\000\213\275&\203N\274C,\223<\256Z\311<hB\201\276\231\327\034\276+\351\245\275\223p\001\275\007\356\257>\322\020\035>\274\304\363=\030\300\361=\344@v=-(\261=\203\017 >\346\255\376\275\254:.\276w\303\336\274 \004\353<!&\033\276\014\367\205\275\033G\016\276+\374P\276\021\002\204=s\230\242\274\352\004\037\276\366\232\000>n\321\254\276\177\376\275>\000\014\241>\203\367\220\275\3552\200=p<\345<\t\232\345\277\nY\230>B&\253\275\263\251\021\276\302\246>>]\317h\276\243F\311>\254\202\220\274\004\300\000=/\325\032\275\214\252\014>\373\035\210=\272\220\006>\005\223\320>\245\253\353\275\263\360\032>O\032\270\276\210\356\335=\333\014L\277\237\344\252\274\333\353\225\274\330\277\261\276\214\004\276>\277\227\347\275m!\221>\0220\243\276K\302\224\275.\177\305?\254\230\313>\234\332\317\276\'\203o<\353\027V\275\357]\370\273S\367\212=\366c\356=]\2343\276\235\250\240>l2\005\275\364\025[>P4\234=Nx&>8\253-?\000\001\250\275*[\025=\227\262\202\275\302\006Y=\270\204\r?>=\207\275r\275\266\2750=[\277M9A>+W\247\276F\265\240=\244\004->!QA\276#\223\026>EDy\2757\244\016\276\255\373\035<e\207\r\275#U\037\275!\367\272\276J^q\275#\032\037>\344\274c>e\0105\2771\306\016>\374\005\322:\271i\256\276\221\r\342=i\304\223\276MO\216=\263\233\211>\257\316\202\273\344\301\250>}\t\330>\202\311\243>\345G8> \347\213=\203\375\220\276\223!\"\2733\365H=!4\021=\363\365D=\231\t\006>\351\344\226>\r}\025>VH\241\276\313\2705=\254\322\204\276\004h\307;\027Kr\276\346\210v\276~y<?\273\305\304\276\274\250C=a\270\035>\333\037\007\277\004\314\"\276 i\241>\373Z1?\345\216$\276\271?z>\232\0235\276O\027[>\342\352\311\276\0252\275\274\302\377\325=Vt\005\276\262X\256=\013IO=\010G%\277S\225\"\276ek8\275$\334t<\225P\330>n\372w\275\323\377\267\276\201\214\305\275\272_\376=\271%\266\276\nN\035\276)\270n\276X\306C=\257\007\205\277\264}\243=\242\304\370\2754\002W>0\221@>\262\320c\276\342\350%>\'Qx<\033|\324<\034\010\037>\370,\260>\003\237\022\274\265\257\247<\t\242>=51\n\275m\303\t=$\201\313>\250\222]>zk\023\277A\221\020?<gH\275\002\r\214>\363A\034>}\000v>\344&\216\274\022\212\266\275j\177 \276X\220\033=\326:\312\275j.\222>\375lp\276*\257\300\275\363)\253\2778\245\236\276\373Sp\274o\225\333;\317\201\244\275\013\n\204\275o\277\206=\213V\213\274]\321\000\276]\357\230>\235nM>\344.e\276G\177P\275?\213[>\0208\006\274>\364F>RL\023?\320\021\230\275s\250\252>\212k\036>\316\227`\276\026\324\207\276\270\243S>\213\030\202\274\316\002e\276\275\265\236\275\351\322\220>\366P/\276\204\367\036>\317\225\202\275\310\213\367=C\276x>V0\000\276\001\270T\275\341a\245=S\3758\276<\347\037>\373h\026\276\221\313\374>\227\000\224>Q\273\372\273\006\230\246\275\205\220\332=\352\3727\276\3703\205\275\361\036a\276C\340H\277\301\337B>\264@\220>\023b\372\276`\275\211>\027\205\255=,Z\372\276\333\207F>b\344\277=\277\t\240\276z\300k=\3423\335\275\205\010->\033\006~=\211\364\216>.\207\200\275\036\243\362>!A\036\275\350\203x\276\363\347\250\275\261\2237\277\333yN=C\003{\276\361\264\303=\364\274\007?\206A\000\276s\357\212>\250n\177=\225\310&\276\033g\331\275z\000\"=\255z\005>#X\233=!6<>\235\253\326=/\014\341\273\212\020\205=J\243\224\275\267\343\037\276\246\3448\276=\027\273\274\332\266\001=\013\215\321\276\372\321\251\274&\246\022?\235\335\244\275k\376L\276_\0103>\022\025\037\276\354\361B=x\013\035>\277\270\270>\335a_>\361\320}\276\322\350\031>\320%\014>\320*$>\207\357\276=\204_\014\275\003\302\r\276\256+\203<I\227\257\276q\344z\275`RB>\364S0=\361\027\037\275\360\312U\276\005\365\204>\t\277c>\210\237\035?jO\257=D\313\304\276\373\243(>Y8\010>\365\331\216\2761;\233\273;f\343\274\364\302\326\276\306dg\276\220\311<>+\206\216>}\360\204=\313 \237\274I\264\000?E\265\377=\334\224\243\2762\354\370\273\246\023\240\270C\215\247\275\374\207\020=m]1\275\270\031\277\276d<\230\275c.\310>\007e\000>B(\000\275\230\332\316=\3613\303=\177oX\275z$\\\276\004\217\254\275\3650$>\005\024\225>\360/\225\2754\014\274\275/\'\024>v7\341=5\000b\276\373\014\252=\t\350\316\275CJ\025\276BCv=\335\334\002\275)\313]?7z\340=\034\350\203\276\345Y\004\275xY.>\301h\024>(d\021>R\215\354\274\221I\006\276A\325\267=\376\251\326\274\235\301$\276\230\013\264=R\n\302\276t\313\242;\3451\262\276\275\023\246\276\253B\223>QM\304\276\335\200\306>\336\271\205=\377\262\354=\236v!\277\250\260c\276\270\223\313=\022$L>}r3=\356\243\236\276\020\'7=\310C\027>[\233\221\276\2532\270\276\nM\221\2779\177\014\275pW\200\276\316\367\344=\351o\323>k5\207;\326\025K=\245X\247\275\316\271\246<T\273\252\275{\017\261>\030B\207>(\223\267\275\274d\211=a\370{\276\276\362\330=\245\336\315=}\231\r\276\020\356\252==\036\377\274\354w\244=\354U;>\224|\r\277\3065\035\276\027\247\377<\242\212\266>%\010L>\322J_\275\026\016\207\276\257\274\225\276C\321v>\301%\320\2764G\361\275:\346\201\276t\362\310\275\262b`?\"\204\354=\313x\023=\030\354\335>\204\252\255\275\315\033\256\276L\207\210>H\020\212\275e4y=\005\217r>\222L\256=Dn3=-Z*\276N`\202=\227 \001\275\312\"b>92\211>\375iE>O\276H>\270\300\332>\250\203\250>\301\321\273\275\014t\n>\314\230\322>\035\036\236\274\3065\302<\361\325\264=\364\233|=\177\003\306\2757\310\223>\240\201,>\223\242O\274\355\246\237>\003\035D\276/\353\365\274E\205\243<\313J\251\272\254\306\277\273\212k\240=a\332@>.X&=\267\276\000=J\366\325>\216\233\215\276S4\206\276\007\251\250>\342\217\324\276\272b\245\276No\375>\331\035\230\275RO\314>\307\342m>z_\375\275\301\250\334<P\005\212<\275^\257\275`\352h\276\375(\252;\270\306{=\014YC\276\314\366P\273(2R\275\357\224\201\276\371\276/>\275\322\002\2766\326\353\2744\352[\276\273\334,\276\023\366(>Y\024\246\276\245 \344=\245j&>K\304\036\274\201\222\247\275\023d\356=\303\016\216<P\212\206\274j\201\001\276\201\224j\276\363bB>\0079\216>\253\332\215<\305\351\210>B\326\363=N4&=\367j\205>3\224\251\274\022\020c\276S\360h=\010\304\010>\361\014\205>\206S\000>*;\374\275E\016\267=\214\266\237\275a\230b<\320\332]\276\351\334\255\275s\350\221>\225[\027>\366\277\025=@{\014=\021\254L\275S5G\275\212\225\033=pn!>\201~7\276<\372\257\272f/\003\276\231\t\010>n\261z>\237\247\225\276]\355\267=\207\357\340\275\260\316\234=\237\213\273=l\374\203\276q\3477\276\314H]<\235\202\032>]$\251=\203\261\364\274\361\264#>\355)\216>\227\264O\275\230\300\266< \347!\276\205\004\314=e\340\365=\226\216\234\276UK\226=`\261\243\276\254\215W>\317\312\367=\260y\356>B\201V=UR?<.\177\206\274\212\270\030\275y\'L\276\241\276`>\304\003\004>\236\254\305<\364G\200\275\272\344\001\276\330\226-\276\3753U>\023\343\327=5\310\035=\177Nv\275\275\353@>;\3450=\241\221\253\276\\\010:\275\013\004\226;\005\330\211\276X\222\010>\341~.>\007\316\216>\255\211\217\276O\241\332<_<\370>c0A\275\357aY>\253\240\037\274\320$t\275ZWd\275\"\277I=\356\007j\275\203\t\317\276\031k\270\275\213U\250>\326\360\347>%\215;>\010\204d>t\346\321=\213[\250=\00578\277V\266\254\275w\025u\275\\\257q>\0049\337\275wz;\276xh\273>\355\026\026?`\031J\276\027\310\237<\r\371\201\276\020@\341\275\261\314\302>\014\316\000\273\376\2632\277OJ\216>\226\020E\276u\026x\275\240\360\374\275}\257\241\275\036\006->\003\217*\276\340\325\023\276\252\363\375=\211\303\"=t\376\262\275\360M\212=b\344\326\276J\\y\274\230R\202>2K=\273Rtp>0\204\310>\311\247W?\335\013\005>d\n\263=\265\002I\276V\374E= \345j<@\024\251\274\340\"/=\235\002\\=K\332<>\257\215\212=/N\232\275\270\311\302\2762{\301\276\020^\003\275sby\276\271\207>\275\322 U\276\023\342L>\235\231+>r\320\247=\2764\215:\025\263X\276U\277\031>Zt\220\275A\326\026\276\032\n\215<\364}\013\276\356\303O>D\002\271\275\277\277{\2764\234\362=\322>\373\272]\034\267=\032\352\037>p@\310\276\351\345 \276\274\344\313</\246\016\276F\271?\276\036$\354\274\250-\236\276Vw\200\276\'\307\025>d\037,\276@\"\001\276\275\210\264\2758,\005>\337\350A\275>\300\002>\241S/\275\267\376\306>\037wG\275\rzX\276\252\017R>bF2\275{t\263=\352\262\007>\227\265\">\316\001\227\276\233\325\322\275S\236\206=\300,B\275\232\305i>\235\"\210>\375\372e>[u\361>g\247\034>}}\203=\347\313\331;\345\300\003>\277!\210\276:*c<\220\253\323;\222\322\236\276\256\373\037=c\025?\275\302\277\232>\334\2358>\353\336F\275\207G\244\275\243\364\007\274\022\3403\276ZP$=\304\370,\275r@\200\274\025\246e=\347\024C>\324\224\305\275R_\221<]b\310>\223\312.\276\223u$=\036[t>\234X\234\276\250\304\332\276\352\276\210>\034\034\265\275V?\261>x\341\200>\030\272\200\273\361\031\261\275\303\002\205\274L\240\177\276\374\304A\276\260\327\303<\217\231&>\364\301$\276gb\241\276\177\316\223\275\220TD?\021>\254>,\0237\276J\027t\274\356\036\210\2767\270\022==el>\210\321\245\275]`\033>^\275\203>f\371\300\274e|\343;dK\n>\311\327\023\276\336\253\345:\312\275\017\277\r+s\27723\027?%\266\310=6\375\312\276\200\002\307\275\336(\214=\\AA\277\370\024m\275\262H\020>\033\212#\275%D\007=hT)\276\260\030/=s\r\303>\353+\306\275\203\2407\276\002\320\306;=\330\220<\033EG\276\022<\246<$\366c?\210\020*\275\274\361f\277\272^o\276\024\014\212>\300\302m>\363C\212>}\331\244>a\236\026\2765\030\235<\2664\377\275\022,%\274\203\237z>b\016\250\276\363C\302=\314TS\275H\372\301=Z\323\373>\330\361\352\276.tC\276X>A=\327X\353>w^\016=\366\t\366\274\216b\271=.\266\231\275\027L\215>\325\266\006\276#\324>\276\247h\276\274\37198>XD~>{&\356=\234\236\322\276\255\343\230\273\315b\004\275\006\351\314=\020\207\225=\021\354\261\274N>\306\275\314A\266=\220\366\340\275\314\325\\>*\005\206>\233M\014=\017\302\010\275\024:\306\275\335j\">\265xR>\242\367\333<\2249\013?\375a\225\276?Q\t=\253V6=\273y\365\275\211yl\274\340\327\200\274\005E\270\275\373\3142>\223\325\340=\013>\220>q9t\275+\001X\275\016F\023?\004\220?=\022\261\210\275\367|z\2745\257\301\274(|t\275\334:\220=?l!=\243\344\261\276\\u0\276_\006\364>y\377F=\353\212\257>Z\005&\277\t\274v>k\263\322>\325rL;\305\226}\275\371\301\262>\306Ho>\307;\\\276\254\330[=\272\230\r>\354R\024\276\321\335[\276K\336\016<\235V\314=\217\234.\276F\303\357>\ru\206\275\005\243\236\275\210\325\360=\226\373\207\275~\333w\275\201\213\010?\342\377)\276\322\362\366\2755\312\274\275D\245\264\276$\326\006\277\327\370\240\274\036\365\375\275\302\217\306=\032\036*\276\025\256n\274\021\326\205=\2773A=?\005\263\276~\270\214>\271\205@>\226g\236>\355\306\321=\311\034\254>\261V\177>\"\335\233\274\356\330\013>\005\300(=\030\272\277\274\330\024\210>Sn\032>\211\020\300\27416\t\277\366\204\030\277\267\235\377\274/\271j\276J{\250\276\254\251\343>\363\031H>\023\274}?\005\204\004?};K\277\371\035\222\277\207=\263>7\250\'=V\200\270\275\231\031_=H\311\276\275\222\300\225=\370!/\276\035i\271>\037\037\253=q1=\275_,v=\253\216&\274\316\035`\276<\345\007\276bE\026\276\246-S>\3006\216\276\277\376\032\275^\206m>\353a\324<=H\207\275\311\206\244=\013`\314\275\244Q\241\276m\374{\275\206\311\350\275\226\314\340>=\245(\277\203C(?\013*~=\353Q\326\275\322\276\007>_\200\222\275\275\370\\\276y[\253>\224\244\271=1/\201>t\345\241\276\366\3509=y\212S\275v\000\205=\210,\337>9td>1\240\201\276T\305=>\202\300G\276Y\200\007\276\035\357(>\364\342\311\276\356\037\031\275\240\363A=\000\177q\276\373\226\036<\223\307\304\276m\001\220>\255\356I\276\230,@\275rz\360=\200,2\276\345&\344<Fq\242</g\250\274\321\234\227\275\327\273M<\260\257\034>&*l?\024\001\315=\002N\004>\013\0325\276\025^\362\274\240(\250?{\220\267\275ce\342\276\205\341\304=\350\352\271\275\270\207\013\277j\332X>\332\315\031=\02150\276q\004B\276\374\302\003>\376\222\200\276E\3720\275\326m(\274\303\001\033\276\263X\010?^\010\315\273`\326\023\276\267\304\021?\216N\202\276\007\2359\274\326\354\331=\003\317q=\222a\010?V\022\340\275\017\177\362>\246b\004?z\251\021\273ae\266>$e\206=|\n\264\275\213\253#\274CuN\277\355\255\004\277+\355\204>\177\337\351\275\013EU\275G\230\300>yd\303=\\\254\205\276\246\345\005\275\010\327\265\275\370\357\256\276\"\371\203=\002\231\302\275]\330\213>\367VU\274\201 \202>\312\227I=\225\225\215>\342\240\003=-c@\276\253j<\276:\305\223>\346\272\230=\233h\256>Y>\241\277\006\020\376>\270S\373>2\276\217>\274@Z=l\262J\276\262\026\201\274R\207\264\276h\211[>\220\036s\275X\310\010\277-\240\321=\242\262I\275\352\337\341=\204\305\310=\317-g\276\336\204Q\276\233<%=S\263\260\275M\021\016=\260\331e\275\202\036!\276\234A\266\276;N\255;\024\314\001\276\315r\004\276\275\341W>s\224\217;\034\034\314\276\034\377\033>\363\"\035?\342\\\317=t.\207\273\374I\351\27545\026>\256\010\317;\302\302q>\370\254\327=\343\354\177>2\321U\276F\377\242\276\177\317s\273\236S\032\2756eZ<HXx>O\240A>U\276\300<r\003\005\276\336G\273>\261\254~>T\357\">.\215\307\276\210\305g\274nQ\236<\375\330B\275[\277\265> ]\207=\rH\224>\273_\002\275\305S\213\275z\321\013>Jf6\275\214\262{\275\014\266Z\273&\215\254\275o\262,=\362\031\267=\246\250\377\275\332\006\257\277z\212\214\276 uZ=$Y\233\276\336\365\020>\260!\031?f\346\027>\205HE<wP\244>\367\007\235\275w\317\310?\311;\212>`2\265\276\236\214G\276,\365\303\275\223\272\020\275\376\255g\276!\003\221<\354x\363=\277\322\'\276\377-\251>\233\362\006\275\']\230>I?\275\276+\376\026\2761\262\213\275q\210\'>\022\212\316=\252\226\364\276\340\r\346\274]v\345<M\314\261=R\177\222\275x;\033\276\212\240\323=\335j{\2768H;\275\227\036\004\276=\334\376=\234\332\316>C\277R?\010>q>\301%f\276D\230\201=\247(\356\276)Y\361>\315\033\211<k\024N\275\022\0331=\255\307\013\277\314\214l\276o\342\344<VR\264\276\247\346\307=\233\3266>7\246\026\275KyR\276\347I\304=\226b\032?\251\257\272>\333\000\226>i\215\361>\356P\300\276\375\002Z\277/\273\210>\010\3607>\340\nu\275\206\253\250<?\014\017?V\002\001=q\217\231>^\'\354\274fW\257=\215\3508\274\250\337\233=\252\312\000?\346<\310\276\"\304\002\276K/@\276\241\310\201\275\315\177A\276?\271\221\274.]\353\275\001\254\212\276\204\251V>mY\332\276\300\2053\276\313\314\334\276j\351\316>I\010|\276| \245=\032T;?\201\322\357\275\345\2661>\325\214\240=\343y\236>\340/R\275\350a\341\276\233\203\360=\321\223N\276\300\351=>\316\276_?\260\257\204=\252p\220\275u\370?=4\376\240\276\364TR>\003\354{>\365\315\376>\025\303%\277\201\343\212\275\0203\373=\30686\276\031\032\366\274F3m<\277QS\275I\273?<u\203\177>\240#\237>R\256\202<\'\320\354\274l\020\273>?\212\025=h~\235\275\207@\234<h\277\225\274G\323R\276\332k\201=\2629J>\377\270\032?7\231\260=\361\227\001?~u\223>h\251=\277\25042\277\332d\272>\313Y}>Q\2621\276\225\226\266\275O\275\222\277+B\347=_\031\341=\255X\353\275\234Q!?\251\026u\274~7s\276\004\227\222=\304\3209=\211\370B\276\220\276O\276_\267\253\275\352\0043\275\006h1?O5\003\275J\275\353\274\r[\252=\302\352p\276\341\327c>\351\347\337\275\343\320\020\276R\260\204>\020}P\273\004\267\221\275\243=\241=H\037\330\273\213p^;\242\032\004\271m\207\n\277b\300\265>\254&\256\276\302\024v=\226\n\027\276\304[\335=\307\350\214\276\223\272-\276dx\361:\010\310\232>74\266=w\007\316>N\333\214?-\306\030=\005.\215=\260\232)>\260\244\222=\301F\r=\030\001{\276T\225\322>\255\267z\2767\3769\277*\233\366\276\204w\001?\030V\331>\210\247\243=K\366\237>\336j\250>5YX\276\024\023\217<[\321z\277\265v\231>\016#b>\005\261\026\277w$\237=\350\313^\275E\276\252=\022\301:\276U\306\227\276\222\2204\276\337\303)\276\371\315\213>x&\253:@\244(\275M-\355>\252\024\237=\325\377\310=\t>j>\343\243\036\276\212\0048\274\360\233\232\275\352\373\263\274\262\305k\276\262\347H\276\002\367)?\265\254\201=\331\246\033\274\261\230\030>\350I\255\275\217\336\267\276\232\353\223=\304\343\241\274\331\324\014\2760\315\206\276\312\">\274Fjt\275\026\275\365\275l\030\375>_Qk>\267D\375>\311\217^\276\335\311\242=F.K\276\337+|\274i;[\275\316\026\221\274\230:\237\275\361\214\224\276\334-\024>\262s\021>\363\252\213>\270\275\t\276Vz\354\274!O\201>\312\\+\275\375\2403\276\014\356H<\261\243%;.\020.>\231\"\211=\211(<\276\270\337\010\277\2278\347\275i\252\r?6<\025\276\2146\020?\033_c?\235\016@\2771\370h\276\214:\010?N\303\271\275\341\221\202\275\346-\330>\204\236H\276y\342G\275\010#\360\276\323\253\204>\223ju\276\006C\010=b\256\235>\267+\002\276{\340\030?\217\032\t=\274\225\306>\340\241\025\276\220\311\216\276XxR\275\234K4?\031&\r\276\204\350\031\277\026E\210\276upM\276\242g ?\374y\017=\245M\222>\246\335\255=v\\(\277\227,\276\274\253\217 \276\026\353\010\277\255z\261\275\346\344\316>\305L\\>\370yU?L\234\277=\t\223\010\276P\213\213?T\234r>\366\204\030\2763\334\332<L\355\007\2779\333\302\276?\332\031>]\301G\276\356\346\213\275\022\357\201\275\026EF\275\027\321_\276P\241\361\276)O\001?\224A7>\003\244\224\277\337\203\203\276L^\203\276Sa\032>>\234_>\265g`\275\264\227$\276jG\274\275A8\023?B\365!=\321I\310\2752BN?\0334\333=\t\3601\275\314\365\251=e\361g>\031\300v\275\371\205!\276\3107y\275/@<\276\357\r\215\274\241\250\226\274\014+%\276\233\216\234\276\237\337\274=\225\020\005\275lTS\276!\333\263=\313\030\321>x\303\360>\230\243\277>\323\022\001\277Y\2678?D\'\254\275bv\277\2751\261\210<Q(\377\274\236T\031=*R;>\374\'F>a\230W>\'\372;>\332\244q=\310\366!\274\355\346\027=Su\266\275\010\177a>\346K\376\275S\327\345>\313J|>}iy>P[A>9\2157\277\274\261\334\274^\244\025\276\351\316m\277\270\345\207>\340\023\240\276\034\210\221>\341\277<>Q\331\242\275\242\323\265>\240\212U<\361\220\273=:\243Y<-/o\275$\350\020\276\214$\213=\270\240w>A\327C?\277\235->BG\362=\352\266N\275\257C\230\277\343\237X\275+ \230\275\333\\\004\275:\325\016\276B|\321\275\227\342\244>\232\246p>\235\021\303\275@\265\204\275t=\242\276\300\340\272\275>\343,\276\275\010m=O\300\207=\367\250+\276`s\274=\343\013\300\275\270q\027\276S\3108?\303:\"\276\263\261!\275\242\374\337\275\226\344\206=\003\247\360=j\tH\276\rr\277=\221\212\211\275\256T\210\275\007:\340\276\241\014\026>\302\231\303\273\256\332\214\274\r\265\365\275\267\245\243\275\340_\371>\311{V>\202\267%\277\364\333\220>d\n\331=\315\312\237\276|\225%>\242\367\202=0]\260\276\010y\225=\327\351\233>\304=\376=\004\3527=\211l\331>E\266h>\0103\215<\263\272\252\274bNV\276\250\201\002?`\236\001\275Q\223\010\277\310f\214>\235\200\333\276|\345\027>\322\253\032\277\'S\276>\2209m>p\231\020\276\257\305\023\274+\223\025\277I\031.\275\005F\277=\027\320\265>\3216\247=\330\322\360\274\246\340\300=\226\032\360\276\014\227y\276\002\3156\276\324\336\301\275 \360>=t\2753\276\022\332&\275\024\224\322\276\021\214\300\275\317Q\274=\311\352Y\276\371\373\333\275.\304\311\276\242\247\333\275\032\302F>\376\355B>\314\354\263<6\301\345=\331\232\327>c\334T\275\031J >\366\214\346\274\3319\017\277\261\270\224>fF\356<\217f\333<Dp\342>\017B\206=7F@\275\216P\'\275\270\3204?\273\223D>\371^\256>V\216.>=1\013\277\213\245\257=\227\361\330=\235\000g\275\212\237\357\273&\334\265=\003\031\244>\360\317,=w\277\234>\301\214\230>EQ\301\275\210\234\347\2731\243\013?\037d\251:;4\017\275\2629\'\274\324bM\275V\316\310=\222X.=\373\024\007\274K\356\227\276\255\334C>&$\264>\341=\202>\304\354O?\347\2632>N\266\350\276\360\315`\276\023\t\212\275\264]\271\275\013\365\231\277\007\204C=\203\361t\276\317\207H\276\354\247\247>\026\000\310=Dwa\276\373\360\203\275d \207>\0301!\276\036\247\250>\356\260\257\274\340)\005>\207\347\205\275\276og\276\036\002\204\275\333el\275\0008\252\276@Xf?ZS\027=\000\376\244=\317<??Sp\031=o\277 >\205.L=\256\277\322\276Im^\274\314\277\221\275\321\252\243>\352Pr>\306O6=\202\273\027\276I\273\345>\270\346\252=\004\023\335\276\277\276\345\275\245(\275=\351\334\035=G\227\036=\206\325\314\276#\352\354<\3353\253>\213\206\353\276\340!(\276R\006+\276RD:\274\365\037\201\276\316\003\216\275Ak#\277/\366\267>\023_j?\036\206\006?\314\003\250=d\357\006\277\365l\343\275\335\210\215=\374O\276\275\321\252\205<[v\026>\274\224H>2\262\200<}pN\2759\241\010>\240\345\214\275\273\201\210=Aj\034?\320\345\327\276\255\245<\276\':\370\275q\372\007\276g\252$\275\340\n\020\275\035\302*?Iy\200\276\361,\253\275\006\342\247;\007|\025\276\276\356+>Jo\303\275\217\265n\273\016\343z\276\314Y\352\2766-6?\263\"\017>\336\203E\275D\360\004>\026q\t=\274\223\036>vY\320\275o&\214\275\212$S\275\317\316r\276\263B\375<\257h2\275\251L\322=1\337\210>\354uP>\316\311\330\274\000\213W\275\226\366Z?{N2;\275R\340=rYy\276\253\222\273;\225\212?\275_\341\344\276\342I\327\276t\324_\276\371\036\222>%,{>\302R\003=\016L\320> \325 \276\272\337\\<\306\n\010=X\376\256\275\201\213\020\276I\025\304<k=\264=\346\221+>wi\202\275\004N\245>\212)\332=\326h\334\276\370\374\200\276FRs\276b\327\201>,\037&=J\225\253\275w\021\234?s\354\265>\030N\237\274Dh\360\275\000O\323>+]\226=\277wK\2764\014\357=\177c\262\276\316\336\033\276\336\0244\277\375}.=\335-\243>\327\272\257>\236g\274\275}Px\275V\274\342\276\353\000\272>\037ZG\275\305\005\235=\342^E\276m\370\265\274R\204\027<\225E\271\274%2g=[\306Q\276g&\320\274k\341<\276k\317m>\332\231\374>(\007$>\272\373\202\276\201\222`?\315\340\233=Q\356/\277\005X\352=l\270\272=fI\327>\326\227\335<=\016+\276t\307\231>Y\355\233\275\301O\230\276\005\302\270\276\222\013\317\276nid<eyZ\276e\250\216\276L\322\213?\277\320i\276\035\337\371\275\0333O?\316\202\327\276\031i\373\274\310\224\021?\024\357V=\032=\023\276\365,\036=\345\030-\277G\211W>\314\373\232\276e\211o\276<b\017=\311\204\207\275\211\200i=\210w\037>\321d\\\276\260@/\276\3200\000=\360\242/;i<q\276\034Td\275\266\333\034\277\330\375Q>\214\266\253\274\230\026\003\277\236\003>\276\2277\365\276\\\234\255=\035\265\357>G\021u>\251\366&?\204KL>$\010\\\272jO\002\276\251&U>09\250\275M\206\274\274\210\231\313\273\n\211z\275m\227^>7\202\242>\342\375\024=?B\320\274\t\336w\275d\243L=m\177D>\366\022\211\276\244\341.?\371\273\356\276t\014\007>\212+\222=}O\335\276\342zZ\275@\317=\275\234\240C\276\362b\005?-\243Q>\335v\214>\351\376\266\274y7e\275o\221\003>G\273\225\276,x0\276V\300\034<\023\352\235\273\014\206\036\275\021\350\272=\326\254\354=\207\036\347\276\324\316\232\276\306\305\036?p\330\223\276\251\200\r\276\240\357\204\276\260\264<>As\324\275zBA>\271\016\202\275\275:\362\276\230\350O>\326\n\232\276\263\261\343<dWS?\321\365\260>*\305V\276\000\215\200<\3701o>l\370(\276O\346\364>d~\034\273|j\261\275\344\320)\276\377b\352\275\361G=\275\263\031\363>\266\355\235\276a\0272\277\332kb\276\230J\201\275\"\340<>\002Y\006\273\201-\264>\300\360\021>\337\366\252\275\355\3311;\305=}>}R\323\276\252\227\206>\210FU8\267\334\026\2770m\024\277\371\216\244=\300l\343>\274\366\344=0\303\031<\225\320\267\276\342l\360<\253\220{>\347\372\314=\207\323\223>\211\213\331\276\035\031\276>\367\324b\276\177i\350\274V^v\276\007\r\313=\'z\354>\203m\262>\034\341\256>\336m\202\277 \003\033\275\177\220\303\276C\260\341\276|\366\277>\253\340?\276~n}=\255\221`?\243\207i>\255gX?*\205M\275\227E\002>\205\351L\275\n\342\224=\214\370x\276$j\324\276\014\271I\276\210\326N=\233\226\324=\255C*>\246u\341\274\336|\374>\013\235\316\2769\377B\275_\230\257>\001\315\022\276\216^\017?\304\237u\2752\320F\274\234\302\013\274\034^p\277Z\204\240?\355\265\271\275P\2618>\224W\013>\3464\201\274\2059\236\275^L\303>v\372\313\276t%\337=\020\345\311\276\260OU=b*\315\275u\217\220=\002*Q=\330\360Z>\314\356\023>H\326R\277W\005&>\036\225R>eO$>\360\356\264\276\333\366\234\274!z\250\275\355\022\341\276\311\325p\276\215\035\363\275\302\006\236>\261\271}=\276\351\345<\030Rr?q\337\206>\005\027V>c\007\035<\336\242<\275\3266\241<\306X\374\273D.\370=\\m\367>\236\200+\276C\361A\276\342\237\016?\263{s>,\244\244>\"P\232>\252\'\200=\3670\211\275\\x\300\275\333[\343?z\215\255>\233\224\256<\250\240\211\275\232z\317\276\360F3\276\272\005\037\276\233\376\210=\357VE\273\376\247&\276\251\334\205\274\003[Q\272w\212\323=\320\"\375>\264\233d\276b\264\016\275!\232\236\277\303\321\350=\342\324\345>g\361m=\007 ;=a\213\262>b\253\242\274\025\252\245\276\232r><(\365O\277\210Ga\275\030\247`>-\030\251\276\242\325\004>\035\300\020>*\0274\277\233\323#\272/q\271=~P\203\277m\313\227\274@\203\360\274\322(\024<\2101\247=\247\221\243\276\020\335\031?\224\251\326=\305;)\277mi\336\275\332\036\334\276\247(\203<\216\262j\276)\322\264\275\246U\221\276vp|\276m\237\242\276yT0?\373\350\023\275]eQ>m$\000?k9\203=\340\341B\276\322\363\327\273\271\342\253\276L\270\032=+\3224\277\306\261\021>a_X=s\213B\275\205\342\r>\016\010x>\010M\230\276+\260#\276\306\034\263=A\256x>\227\355\223\276\177l\037\275\227\355\215<\014y\206\2769\263\024> \037;\277;\214\003\276\\\344\354\276\366\237\226\2750JO?\037\321\364>\343\376\006>]\035\232=6\021\263=\226u\204\276!L\n>9\326\325\274\274h=\276\351\274\346<}\337m?6\300[=\010UA>\374\033C:\212&D=\335\354\036\275X\311\376>]\033F>q\215\243>W\223\265?\366P\202\275?V\331<K\243X=\242\333\222=\\\275\345\273`\201\330=\355\032\204\276\327O\202>\026\236~>\0254\210>\010\276\326\275\234\337\253\275\250\371\020?\311\206\342=@X\237\275\371\2729\275\335]\227\273\265*\266\275i\274\332=\n\213\226=\314\'\314\276\271\222\331\275,a7?h\024<\275\223\353{?]\n\323\276\026\210\004\275\'\014\241\276N\233\262=\223\233\344\275\336\225]\277\231\270\242>$\"\025\275\301\212 \276\216\216\022?\345J\271\275&\025y\276\235\3075;j\311\203=\315\2470\276\213\323\352>\334\235\026\275K\257h>C;\225>\212\336\000\276|~\"\275\345\357\302=\241\357\006\274\304,#\277H\362\316\275\246ce=\033\030W>da\006\275\241\320\367\276O\202\004>\232\2212\276\376\'?\275\212\362[>z\311\016\276\336h\221\275\244\022\005>;\315\373=\021|+>b\255\277=IW\255\276\r\366k\276z\034 =]\275\353\275\010Q\337<4!Q>\302\200S\275\374W8\274\031\3723\277\243\324\242<\2354s\276s\340U\274O\n(\276\r*P>^GM\274\026\177J>Yu\365\275)\371\330\276m\204\222\276\222\355\256\276$\013Q\276y\317\245\274\303\027\334\275#\241o\275\237\314x\277y@\205=\3057\025?\277E\235\275\223\316\013>\306\334\237\274,\256\267=\373?\220\275\r\200\377\276q\2233\276\214\321\201\276\213\022(\276h\3327>(w!\275\332\212\033?F\\\026\276\376h6\275\235\\\33597\236\006\276\350\027\023>\307\334a>w\272\375\275\301\201\220\275\362h5?Nk\023\276\217\313\270>\001\220\370=\304\306\354=\232\301/\275\307F6>\030\251B=\340\214@\277|\375\220=\301\213\362\275\000\2736=\322\0252\275\257\337\337<]\007v>\202\177|>\345\311\232>\266\333\031?\311\347\014\277\342\274j=\270e\005>S[\225=\341\253r\273\263\200\\=G\246\210>\251\307\364\276\367\360\225=\257$\227>\342\335\222\275\r\0044=\354\252[\275\352*\220\276\\\303\262<\301\001k=x\354\"\275m\225J=\324\351M=W\003\257=>\337\314\275sz\242\273\303\213+>\004m\311=k\347K\276\036\357\026?7\376\030\276b\205\374>\243Hv>+\375\327\273\215\251\023?\007\243\322=\361Ry\276O\342f\276247?\342\211\006>\032Gf\276\243\014\257<y1\010=\273\326\303\275\00208\276/\217\352\275?\010n=-x:\275\034P\360\275\036\020~\275\302\220\302<\031!\273\276\035\272\014@4\2544\275h\343\005=\020:\000\276\315\273\007;}&C>\n\032\007>g\325\001\273]^\226:\371\253\365\276\336gH\276\0164\245?V\034W>\316\014\231\276*\347#>\007\342\322=7]\330\276K=\212>[>\232\273,\260\035\275\032\367\032=:V\'\276\370 \351=\302\250\262>*\350\317?)\277\213=\225\320\262\276\340)\020\275\341_m\276\305\333\317\276\205?\001?k\004\004\277]m\377\276\22206\276K|y>\036\235\311>\211*\363>\265\304\333=\247\355\215\276\034lM>\356\270U\276_\315V>\3013-\277\004\324a>X\244\251=\371$X\275\315G\327<\323P\317>\232\323!<\017[\'\276\244\264\250>\014\300\371=o\332\271\275\371\222K\275\213\345\346\276\302\2608\275j\311\223=4\002\033\277G\004/\276\322\277\304\276\215\021\241\276\003\250h\277\376\201\336>\030\232\377>Q\355{?\247\333\331\275i\253\333=m\031A>i\206\270\275\223\014O\276{,\264=l\267\006?\352\004\231>;|\360\275,\241-=\264\254\211\274\377z\016\276c\203\237=\220\275J>\370ac\277\375\256t\277\260\2305?\005Z\016\275\227\361q>;\201\243\276VXl\274\005\"\027\275-\221!\276X\324??\316@\241\275#\246\225>\354\372s>\010\336,<\340\277\271>I\244\202\276\321p=>\204Ri\275a@\237\275\016\275\370\275\3451|=\243\336d>jhd?yY\267=\207\001\370>\227\030\252\276hO\300=\341\334#\276J\335\004\275\013\377\213\276\031\321\210<r\007\005\276\344E7\277L\276_>\215n\003\276\255\365\r\275i|\202=h\346%>\225kQ\276J&#\272\255;\217=5T8\276\320\026\022\276g@8>\001\004\321\275-\353\224>\361Q\355\275\303\037\267\274\356\370\370\276\024\355R>\267\277\\\276\326\231\366\275C\351y=\252\325\226=\310\025\233\274\235\307\325\276\234\342\250=\361;G>\340L\035=:/J?9\226\'\277\334W\317\277\204`7>j\354\314?\026x(>\"o\357=\202\222a\276\t\341h>u\255\206=\366\224U=vm\267=8\275\314\274(U\324>\244\nx=\346mo\277-\264\326\274\034\373\272\276Q\344\252<\tZ}\276\263\211\353=_\021\337>\023\027,?\234j6\277v2\205?o\003\252\276\020\273P>]!\377\276b?\246\276\353w\330\275\354\250\314\275uY\201>e>\273>\232\272/?\323\351\001=\313\3635>\252}g\275\032\216\374=#\355\311\276\367\004\332\276\237|}\276-\361\342\275\250\346\021=\017\327G>\226\260\032\275Z\002U?q.\034\275U9p\275\311\212\210>\025,\357\275k\243\276\274\350\220\307>\214\022\251=\273Z\253\275E\236\260>}_\333\276\350]\337\275o\013/\275\021\376\003>\331$\330<\277\276\277>\342xF>\347\317A\276[\351C\274\341\323x>\362l\016=b1\201\274\343\312\030\276\224\262\331>\302MX>\030\344\201?\266\357\256>@\001\342>W\267F\276\267T\251=I\354i\276\033+D;J\231M\275 \"j\277/\021\003=\210\332\001\276\020\272\252>j\022\244\275\025u\371\27538C>\t\241<>\344`H\276\357\306\224=x\334\372<Y\357\033>O3\"=\351\333\304=\336B\031\277)>A\276K\"e<A?\340>\365\243C?\303.\245\275R\226\322\276\037\200\014\277\005\377\307<4\024\003\275\366Ko?\230\227\230>\265\325,=\347\300\305=\241\204\225\276\n\213\242=\023\334e\276\005E\316<!\257\331\276G=%\276\310m\200\276.ZM\276\342pn>\370\376\034>`\224o\276\244\222R\275\254\326\031\276\304_\017\276\241w\247\276\234\332t\276($\255=s\211\215>\003s\022<#\256\t\277\202-\241=\3255\360=\347\221H\275\347\340\305\276\341\\\342=\353\365\220?\327\302\235>j\335_=\021\373l?\031dA=\265H\014\277\227T\304>+\204c=5\023\243\276\025\212\003=\222\301\003\276\002\357\210=HM<>:\342\002\300[@;\275!\233\017?au\t=o1_\276\221\331[=E\'\034?x[L\275\302\363\370>\350\026\231\277v\225\231=\323\352\024?@\0160>\324\276\363>+\002\220\276Q_\304\274\027\327\355=j\013\220\276N{&\277\344:a\273.\036\220=W?k\275\361\025\222=\244\275\357>s\332x\276\021\274\030\276\205\357\346\276\345\220\371\276\030i\215\276\201\334\211\275\034y.\277F\270\335\276\347&\214>VF\267\276\207\2330\276\030\262r\276\363\3514<\206\330\002?\211x\311\273\365\376\322\276[\262\375>K\306\225>\261\266\321\275\263\374\204=s\377\223\2766\367a\276\016\260\254=2\227\311\275\247\220\025>\367\016\252\276\264\375\336<\036\223E\2756\302X>|\230\002?\276\267e>\016\255\021>O\te\277\356\252_\277\275\271\236\275\316\217\017>\022\202\201\275]\212\335\274W|\233=g\376\376\275\037T3?\225\026\206=\342\327\224>\252\355\242\276\230!\r\276\201\007\357>\007\221->\252\204\025>j\315P\273\320\365A\275\225~\323\276r\037\235=\333\r\005>5a\231>d\241\226=\034D\216>\2263\231\274\377\347\342>\222\342p?\224\227\236>\340\000\375>\373\231\203\274<\264\305\2759\240\325\277$\350|>V<\301\276m\271\006=\365\351\215>\254\245\025\275&*T\276\257\330\231\275T\202\331>\262L/\276\254T+>\305U;\276\332\250\222>\211pR?O\312\004\276\370X\037\275\361S\211\276\204Y\205\275\300.\354>VJM\276\233\221J=\003K\013>\265\025\010<\216\375m>*\343\370=s\241\356\276\211\322\202\274E;\225>\314\314?\276,\206\207>\'\267z>;8]>\306 \253>}X\306=\217f\275>:\006Q>\367u\214=d\327\022\276 7\233<8\335\357=\254D\201\275\\.K=l\375\201?\207O\361=\337\337!<\261m\271\274\320\224|\276mj\352\275P\351\246\276_cr>\t\313\355>\363!\003\277 B\235\276\202\325\305\277vCW\2763\341\227>Z\016<=o\030\006\275\013|B\276r\321\257>\253D\370>\271`C\276\335\200\275=\220F\363\274\314<\367=\022\024\363==\211\007\277b\216T\276:ht>\017\220\343>\005o\221\275\2634\352\274\312\242\242<\035\020-\276\306\013\t\277\3145\000?\211\236\024\276\325\372/=*k?>gH/?\021\305]\275\345\205y<8\203\241>\031s\353=q\203\004\276\233\345(>\3025\276=\234\021\342>\333\200\345=\361\014c<1\352\352\276\303\214b=\360\t\323<\261\264\223\275b\213\315\273?\337\242\2763\310a>M\020\177=\3143\217?\307H\234>\203\364?>\253\375k=\031#\366>\223!4\2753g0\276\030\324\303\274\226\354\016\2766Te\275\214)\221>X\035\257>k\262r\275^\374\203>;d\027=\177k\330\2757e\302<z#\325\275@4\235>\014l\'=\335y\000\274L%\021<=\364\243\276\032\264\202\274\023\267\263>\217\317F>\302s\274>6n\036\276r\235\247\276^i,<\020\237\211\275z\371\250?\331\211\266>\262\006\326>v\302\001\276\261\204\345>\014\263U>\245\t\210\276\254\241J>?\023M\274c^B\276\271\034\033\277\200d8=\026]*>\264\030\377\276\300lm\276%S\226\275\010\030J\276\210!X\276\231*\376\277\372\317\212=\352e\301\275\365X\030\275\307}4\275\177\242;>\364R\267=lM\331\276\376\315.\275\247\334#\276\231\007\230\275\321\243\321\276\\\221\005?\302h\334\274NQ\005>W6\311=\tn\331\275\235^W\276\251C >>7\355\276\013\224\022=Dz\240\276\023\350m>\177\303\217=i,\265?x_\365\276\372\253>=\357\260\247\275sHj\276\241-\305\2761\0353>>gQ\276]6g>\177\014\325\276\022\n\233\276oB\217?\373|\211?B\'\003\276\250:\\\276\023Q^\275\2205\231>\330\357Q\276,V\334\276\014\000\232>0$q=\030l\256;\320\001\220=\006JZ\276\237?\260>l\335\350\275\201\242\371\275\3012\006>\366o1\275\202\335\025\275\253\354\274>\317w\005;|\331M>\246\3774\277\006\016\351\275\233\222\001\276Vs\202\275N\214\324>V\007\223\276g\367y=\330A\210?\232k\220>\235\335j\275B\201\367<\365;\264\274G*\275\276\224d^>\216:l=J\347\354>\255\352\003\276WF\211<\036\344`\275/\n\030\275\200\rd?v\237U>_\253\330>.\255\016\277\231bB\277\246$\231\276\316\312\301=\372\251\005\277i\223\331\274<!\254=E\332\t\277a\035*=\020\331\003=\356\215\234>b7\230\275\311\230\002\274\025J\026?\001\032\316\275\2760G<\355*\"\275^\377\004\275\373\002a\274\241\373\276<\241G\347=\337\366r\277@\224-=9Q\324>\267\270\251=\022\331\025\277\245h\020?e\210\253\274,\220\024\272\221Z\021>\217\311\351\275\326\003\305\277$\014h>\361\274|\276\333\203\026\276\350Hv\276o\241H>0\220\004\276|\257\251\273\310Y\220\276\013\t1\276\203\355(?K\210\331\275\304P\262\276\354\233\236?\243Xe\276\036\267\336\274\363o\332=\316\004J\276\036BA?-p\313\276\356k0=f\022F=\365\034\244=\332\207h>\201\227\333=\273?d<\330\001\365:\365\002Z>\334\236\311\275\336\r\203?\356~\252\276\355\247\254\276Q1\245>\334@\250=)U\310\276N\016\245>\2240\265\275`\374\014>r\373\367=\216\357\253=3\200\334>\331aN>Y[\260\2776\220\357\275\033\321\321=\004\303\377<\210,k\276j\306\223>\237P\361\276\243\223\\=\317\277\000\276\010\225c?,\344\224>\236\324&?]\t\010\277\000\364X>\212\3279\276w+\263;Hz\340\276\325\010\000?\277Fk\275)\t\345\276\231\"\305=iI\207\275\027\013]=\375\206\207>\377~p\277*s`\276\375\235\003>:\200\033\276{\331\307\276FQW\275\224\177t>\364B\021\275\316\274N;\247\230\236>>\0216\276\335Og=`7\303<\351\230}\277\272{\003?\204f\'\276\006=\"\277G\254\244\276\215\226&\275>\252\230>\255\250\255\275\371G\321\274G\256\006\276G<Y\275\004y\303;\305\341\230\276\311h*=\371\264M<\221\023\362=<\336\362>^\231X>\013\\2?\230*\375<\270&\311>\240\341\346>\270\013\002>\235>\341\276\"`\334\274\224\0060=\2103\364\2756\203\331>\206\210\004>\275\206\210>4P\251\275X\212\201\2754s\232>\235\001\000>\013\251Z\276\234\223T=\354/\301\271]\"\324\275\253\022j=sl\026>\233\301\261>2\205\215\275\3621\306>D\305>\274\024\021\354>}\224@?N>\005\276\201\375\014\276\274g{>Z\336\322\275`\330\267?Su\254>\002oJ=\265\"l=>S\231>\024W\317>\023\321\177\276\202\032\203=\032#\210>\216\227\'\276\343\r\343>wqu\275Xa\321>\274(\332\276\253\345\344\273x\241\205\275R\215\r\277<\321\023>\030z\"\277\366*\327=\370\262\017\275\253m\263\275#3\241\275c0\223\276\316\335\213=\034\000\"\277\323\307\036\275\034Y\274\277Eo\362\276\264\356\223>\316\2362?\360@@?\225$\260>\373\257\236=\353\265a?%\321\257>\247\371\276\2754G\014>\371\276`=\0372\016\277\351\023\267\276P\226\021>\301\234\017\276\243\223\364>E\370\306=W\325d\274<y=\276\001\365\321\275\363\245k?`$\352>\213%s\277\'*;\277\357/\253\276\001$\017\300\322\342*<bl\277=\"b\004\276\201)0=\246b\332>\267\021\242=\241\306\036?]\237I=\351\212\267=U\315x\275\\\355\">\327\370\237\276s\300\221\275\254\221@\276\020\223!\276\207ML>\362\227u\276\336RY\275\303|\234\274^y\373\276\366O$\273\341\276\323\274{C\350\275N3=\276\350\t\022>w\260\357>6\212\266>u\'\333>#J+?\265}]>\371\366\213\275\205KB=\027\320\002\275\236^\303\275M\356w>\373\234\230>Jd\031\276\200\025\t=\026\312]\274\366s\264\275\372E<\274Z\323\225\276<\0075>,P%\276\236_\r\276\216Do\277\237r\210\275\201\005\036>\316\304.\2766l5\275\033\373\004\275\213\262\351\276\271\347\231>\366\265\037\275\345[\216>\256\017\027\275\016\315\004\276nN\035>\200dL;=a\n=\000\266:\275\251>\276\275\013y\224\275\254\032D\274>\307\000\275\313\316|\2775\347\243\276x\203\231=\310\\\004>s\220\375\276\371\300\205?Zl\017>9\254\337\275\217\017\314=h\226\025\275\244\234\035>\201\002O>\332\375E\2766U/\276nw\366\274\337N\326\275\034&\211\276d\026f\273\351\355Y>\256;\032\276i\365*>\261\305\257\275\237\363|\276F\227\200?\263\330A\276\362\205\000\275q\310\264>\356\203\231\275*\203\024?z\255\316\276\020*c>\251\341\034\277\262}!\275G_\272>\310\332\346<A\303\205\275v\315\300<\007\033+?S\362J:\234)f>\230\333\"?\360\010C\276\335\004G>\\\006\261=+=\242=\303\272\215\2765n\026>!Z\325\276\2211G=\230g\027?\231\245\023?V\230\217\272\322\204\221>\'w\355>\001(_\276,\272\246\274\230\302H\276\321\202I\276\231>\220\274\205\236I\275i^T>v\237f?\347\035\024>\234\036\354=# k>\265\001N>7\003K\276\334\351\177\275O\207\234>g\334~\273\233\300u\277)6\212>\033\027\300=)R1\275\371\374\336;B2\014\277\365\363\210\276\264D\036\276;\365#\2743\267\366\276]\033(=\201\240\360\274k\252\224\276\0106*=\227\013{>YTu\276\016IL\276,!&\275\340\351\030\276\343M\213\277P\214\016>t\303\003\277\257I\200>E\235\021>n*\210=)bQ>Ut\336\274l>\021\276\317j\212=\253\"]\277\177*5>\003\2736\275l\377o=oS\223\273\314\004\201=\224bH?\353\257_>\000Bd=\373\306\326>\310l\266>\362\250\301=s\225\014>?V=\277\347\026F<\316B\235\275u\264\004\277\342@\203\276\010+b=\336;\223>\36067\276\\]\301\274)\313\262>\177\245\316=/\365\005\276\212,\254=\267\327\032\275>&g\276\rA\235\274\251e1>Js\014\277/\330\371=\r\253\320>\207\022\205>\335\306$?j8,\277\240E\203\276\024^&>\303P-\276\257\335\221\275\303\347\241\276\322\200\244>b\362\240\275J\342\313\275p\273\033\276\221Q\215>F;E\276\355\357\274=D?j\275\017\350.\276\005C\243=z\207\344\275f\355\000?\233\311F?\336\264\023\276\213\317u\275A\277\247\276\260T\"\276s\264\300>\224\210\240>\2164\336<\205\036\357>R_\222;\323N\221<,\250\001=\305\352\255\276*\215K\275%\376=>q\326\237\276\207o\246>\200}\204>\024?)>\014\r\302>\255\033\241=\330\354m\277\0326\364>\005V\376<\304\231\232>(\001\177;\216T\n\277L\332\200\275-\340\275=\236\242\201\274\222e\365\276\344\274\201=\211v\337\274\341\310\203\276L\346\241<\264i\263?\344\'\253<\345\021\247=o\016\307\273Qyy\276(a\r\276\227\360N>\346\207:\276\252`\301\275\344i\202\275q\335\333\276\206\014\317=\003\276\250>\247A<\274\372\260\202=\273ji\275\300K,>/\223\305>e\370\352\276\232\000M\276\313\235s\275U\260\203>\360\006\220\276\306\005\334\274\241\220O>W\034\226\275\032^\232\276\307Q\342\275zn\016\276O\226\020\276\003\332\261<\000\344\031?,\026\264<@\263\273\276\262\035\326;\207\350\223\274\231\225?\275\301l\032>\242\036\351\275\300\221\223>\027\326\241>\365\331\321>~f\372=\204\275\031>x=\277<i\301\336\274B\017*\276-\314\322>\243\241\206>W\257\227\275\335=\252\275\227\211\364\276\"\230\234\2762\303\323=Z\026y\275!\"\307\274\246~\306\275\034\331 \277\246\'\r?\250\352#\274\224x\252>\337\230i>a\273\273\275\233\240\374>\311\331\330\275=\224S<%3{\275:\326j\274\315\220\022>\234X\300=\274V\247=q\3124?d\366 \274%g\306>\n\020\327=\305\014\236\275\001\200\225\276\214\246\346>+\032L\276\245\350V>p1\271\275\000\376\311=<>z>\231\032\256\276\006?{\275\333\037J>\310 \253>\300\265\202\276Xog\274W\245\360>\014P\353\275\327\372!\277?\324!=\003T\313\275I\334\240>\027\305Z\276*\004s\275\275\204\017?\313\001%>\020a\214\276\344YI\276\320\257\264\274\0039\030?\\\027\271\274K85>\336\244\027>\373\001U\276K\177\371\274\266\231\257\275\351\021~\276\207\200Z>\006qp>\334\366|\276%.K=F\003\326=\353X\354<\246\243\'\276\227\027\241\273\261R\037\277\013C\231=\234O\314>bO\231>h_\244=\260\nX=\224-j=\007\266X>\241Q\236;\230\316O\276\342)\265\275\233`\261\276\370\237\264=\270\322\215\275\322\310{=)\313P<\255\306\017<\3318\207=W\'8>\027\276\271\275q\310l\274r\251\212>\232E\343=\276D0>X\346\216\276\302\033\030>\376\247\306\274\205b\304=?\277\203>1:\322\275_\277S\276\336\347*\276\016\205\307\2760Y\220\275W\353\243\274e\266\245>\261\3041\2726l\337>U\273\024\276\014\013\376\275\206\250-\276\236\010\224\274\260\221\373\2761\370\240>\t\204\363\274h%\301=\020W\'\276\001\267\352\275\324\367B>\235\347J=\031\177\240\276\373U\200\275\274\337(\276\261\r \275\346l\262\275\001G\311<\370\327\272\274\313\021\027>\326\0038>\261\365V>\021=\242>\307\357<>\242\313L>\347\357\207;\017\227\272=\261\373\257\276\262\256\335;\252x4=\251\001T\275\213K\211\274%\246\272\275\272\360\214>T\256s\276\256\313h\275\307e\017>,*\307=\344\\\202\275k\355\010<z\027i\275B\307H\276\304YQ=P1D=\331\333\314\277\016VQ\274\024\345\250>\252V\022?^F\230>ymr>7\210u\276\342\254\214\273\002\222\202\276D\016\304\275MU(\276\3012\217>\207\332\236\274\273\030\243\275\347|%?@ \035=\033\237F\276(8\314=\024\020\225>\231X\027\276\307\\B?b#0\2767\371\001?\237\372\037?\334\002\334\275Y\255\364\274\211\271\006\276\313)A>`P\343>\347\260<\276\352\316\225=\260x\206\275\252\321\r<\273K\035\276\366p\360;G\356\371\275\037\001O\275\361\324\222>M\312\202\276\244\264d>\212\340->\255(\250>\216U#?Z\307\232=\375*\367\276\3421\254>\032[v=d\317\200=ua\027=:%\211\276\310\333\206\275\337R\r=\365P\014\276\253}\025\276\002\233\323\275\232C\215\274\365Fg\276\215Z\312<\203\373]?\330\242\212\2756\276U\277[m\201=\006\324\221>L\374\245=\020\004\\>O,\315\276m\343\t\276\204\256\246\275\002\306\230\276\257\377q>p9\036>}y\n\276\234u\375\273\350\270<\275W`9=\272\033\022>;q\215\276\277s+\276\354q\214\275\253\242\225>\014\377\334\276\351\203\005\275\351\325\370\276\"\350\002\276\\\274\370<\260\303\202\276_\221B\276g0=\276N]\361>\014\334\251>\311\t\354=\254\357:\277\020\307V>\240\2054\276\362\343\207=7q\370=\320\201\360\275\257\022\020>\321\3373>\252\360k\274\315\303\374=\254L\236>\000\205\207=\2701\212\275\2441\345;^\311\353>\025\2456>q2\"\276\205\300\255>G\223\237\276\312\366\253\276\006\024\313=}\n\"\275\020+\306\274\334\021\253\274\346\226\211\276vo\374=\265\345%\276C\205\222>\027\205K=?\023\324\275cx\205>\022\005\376\275\321@\002\276\352\t\232=\0004\226\275R\272\264=\031\033\350=\263\374\031>\265\177$?Q\324\276>\232\201\330>C=A\276\256x\304\276\260\010f>h\301?=\006\226\251>\217y\242\2756A\370\275#i\206>\222\271Z>\257a\330\275[CM\275\220\365\021>\221\346 =^\033{\276\355\034\035=\247\223[\276\021\254\037\276\252\352\236\276S\263\336\274\241\2037\275e\325^\275\023A\032\276\3766\203\275\246\351\210>y\017P\276\233\277`=\206\367\303\275\301m\217\275\274\345\003\274R\030M\275\t\320\226>\250\353\002>\347\307s\276\315\260+\275\333\304\014>(DX\275G{\304>^I\236>\313\313b\276\\\236\256\275\245\351\353=~(\216\276\007\227=\276\304\374\232=~\005\203\276b\375\237=\224H\257\275gk\201>x\357\252>\261\005\253\274\230\364\206\274m\343;\275\304\251$<0+R\276\302o\030\276\210I\034?\370\256\375>#\361\252>\273K\245>d\235\003>\005\2149\277\344\010\007>\213\030\241>\004\276\000\276`\244\214;\314\024\034=\367\265\t\275\014\203\016>\244\215M\276\237\230\370=\025;\265\274\322\024\252=\276\272\352>\254P\251\276h\2520\276\231\317\327\274\001\016\004>\337F?\276\233\350\204\273\000\362\373\276\316Zu=_\021\236\275A\007\216=>q\355\275\255\375\217\276l]>\275h\007F>\234W\367>\351\357Y>\326\376l>F\263\370>\257\254\027\2751\206\">\377I.\274N}\325\276g\030\014>\024\372\316>\031\271\323\275\tQ\330\276\277\206\327<#.)\275\177\030\\>c\035y\276l\241^>\233\351p>\026<\331=\020\265*\276\275\305\241>x!\300=\310\304\t\277\020\320\242\275g\334\336\274\276\027\374\276\224\331P>\275\265\356<qI\207>2\226.\276l\031\337\2740g\323>\237\276\025>\272o2=\345\363\\\274\'\311\233\273\355\266\242\274\266!v;m\r:=FO\267\277He\343\276\215\301~>\364T\245=\2641\301>\324%\302>\272\370\211\275\022\031\246=\260G->DX\033\275\310\371#\276\357?\353=1]\027<N\267\002\276R \352>\211S\373>3\231V\276\352o\242\275\367\301\325>\216\245-\276wv\226\275\356\333\232<=|\217\275c\003/\276\210\300M\276\260\0141\275\251\r\000>Y\001y=\007NH?H\020\001\276f\261)>\000\236:>\250\034\223;\327\010\251\276\226\302\351=\211|w\275jRB\275V\204Q\277_aq\276D,\306>\372\2149\275\357:\241=\337v\367>\3014\214=\267\366R\276\261F\255>\200\267\032\275\224\2752\276\310\221\013=\355\"W>\024\343M>\271\246_>\246\335a\276c\031\257>\013\033\'>\313\364\3268\304ds\276\316ld\275\313\321D?\252\271\226\276\256\331,\277w\341\020\276J\200\014\276x!t\277\277\362\234=\254\034<=\371I\241\276 \373 =y\204\366\275\035\303\204=\253\317n\276h\213\241\275\344/\310=/\364\221\275/\331\306=u\370c\275\027\255\225\276\036/*\276\224b\377;v\243\242\276\341\335v\276Kc\201\275\251\306\021?\033\233c\275g\016q\276\013\007\013\275n\224K\276\340\025\231\276\025^M>\242\343\321<\347V\007>\364\251(>\020j\350>\236\006\241\276\332\257\252\274\302\005\024>\nS\017\2758L\207<{\265\014\275\250\002\246\276\271#j\276\210\237+=,\217\030=\214\033;\275\330\370\272\274\374$\376>\000]0>\372\355a>1\021\326\275\202\200\376>\313\027\251\275\231\271n=}[\320\276\331>\030\275f\355\300\275&\276\376\2762\363\017>\031\326\331\275\210S\217>@\236=\276\001J\317\275N|\324=cg\263\275L\346\216\275H\336{\275q\310*\275\357\016\366<\345\207\233=\322\203\034=\232\r\353>i\333\251>\206F\226>/\241\\\276S\351\234\276\316\243\021>D\236\031?\271\371>=\251\243\377\275/\274\353\275w\240=?\225\001\227>Ki\353\275\314\277\241\2755,\324>\205\330\213\276g\334Y\276s\343\312=$b\005=\216\0231\276o\357\203>\263\3654\274u\010\013?h\245\207\275l\\\247\275\313\205\014\275\360\240\264=\354DQ>O2\202\276\256\353+\276\253\n\332\275\363\207\231=\335\007~\275\307<\334=\223I\240;L\014l\276s\324,\275\220\316&\276\256\220\242\276:\340\246>*@o?\377\321\205>\317\r\246=\300=\312=;\201\021\277d(\343\276<\306j=\203\r\000\275\350!A=N\232\245=s\377\224\273\023xg\275\005\273\r>\367\372\267\2761\334n\273\217\336\331\274w\220m\276\312\325>\276\334\333\300>\260nM>\205\241\006?@h\302>\341\233\371\275\220\254a>Yr&>\254\315\031\276X\0347\275-\247\030\275 \257\336\276 \323C>\013\377\315=n}^\276 I\344=e\007\203\275\267)F=\2575\231=\210(W\276\304\224/\276U\001\257\275\244\024R=\231/w\276\201\267\342\274\210\357\274>\354\312\020\276B\357\307>\344 \257\275\366\304\006\276\346\300);\220\276\252\275\203\374\210>_\035\000\275\344|\340\276\267.D>S\272\237<\325\303\237=\372\333\r>\275\253\250;\377@\270\274\030-\313=\343\223\316\276]\377\021\273\264w\004\276?*?=\237\250I\275urH\2759\350\272\276f\352g>\2445\361\274\356T\215=J\203\366\275tF\311\276\242\367\r>\245\236\351>\216\3562=\027\265\224=\004\020{\273\013\350\262=>\305~>\217 \245>\247\314m>\375\030c\275d\361g>\031*\001\276\014e\273\275\370\301\243=\002\261N\275\240R\314\275\251\031A;\227\3642=\223\331t\277\373\300\313\275\206\262\276>\375G=>v\267\003?3\202B=\215\244\361\275\0022\311\276\257\376\376\274\2422\013\275\206/+\276\301\266B>\255k\260<\200\257\267\275R?\000\274`.*>\371\023l\276\275Y\232\273\"\034$>|l&\2760\210\377\275X{\213\275\022\023\216>\201Z\371:\342o \276\250\037\024\275\273v8?\247\307\035\277\307\244\027>\361U\312\275u\010\036\276\276\2636\276\310\231\237\273\371\t\363=\353\021_=\216\312\026\276\236sU\275\006=\'>\033\244_\276\357\352\250>\242\323\344\276\232\247\035\2756 1>\340\263\340=\340\223\027\276\026\314)?\247\317\376;\231\221\000\277W\312\223<\226\322\270\276\333z\205>\227J\235>\323i\032\277\3264\200>\"2\257\275r\360*<\233\020^\276\201L\225\274\266\304\024?\352\316\240\276k\270\035\276\232\0078\277t\205I\276\026P\201\274M\033k>\030]U?B\2466\2765\232\212\272M=\001=wX\004=\230\230U>\002\326.<.&\020>\021\354F\275\340\0055=\352\377D?\3128.\276Z\016O\276d\234b\276\252\022\202\276\366gB\274\313\032\311\274;\014^\277M\232\\\276\307P\310>\265\220\244<,\341\020\276Lp\223\275\346\377\376=r\027$\276\336S\014\276\304\260\213\276[\374\322>_\253\207=l\243\266\274\r6\000>\2576\013\276\031\270\266\276\036r\222\274\232\350\257=\306JO\275\263\t\033=\326\275\231<\216\200E\274\214\211|\276\234\237\255>\013a\177>\030c\202\274\361\241\267=\267\360\036>\242\212\017?\347\215\367=\334\307z\277\033a\204\275-/\372\2742\261\025>\213W;>\361\377\207=\373\366\203>\'\037M\276\316\237D\275t\023a>\207\263@\276\323sY=\201\324\230\274\304\222|\275X\246\236>\007\224\203=n\010\030\276+\351^\275y\023\242\275Q\367\207>\037\367\211\276Gt\322\275\276G\032>\263\211\033>I}\245>M\025~>\261\004\314\275\272\222\344\275K\206q>\"\231\377\274\312\222\203\275\331\271$?\274\302x\275e\005Q\276.~/\274\003?\212>\371(\027\276\362\2755?L\274\034<?\001f=\225\311\027>0\003\000\276\355\214,\275\376i0\277\341\244&?\231\366w\274\260\224i\275u^0>\373\032\370>G\322\215\275D!Y\276\270a\253=\001*X\276=gw\275\3349\375=>Z\234\276\276v\\>]\037\215\276$\231X\274l\025\200\275\333\265\263=\350\313\021>\213\271Y\275\361\206\217\274(\231\233\2764~\241\275\254\257\341>\305\030\361=w$[=\221\216\304=\201s\312\276\021\363\241<\026\034\224\274\212=v\276\2346*\275k\207\027?\320\373\243=$\330h\276/\354/?x\032Y\276>S\177>lc\215\275\017?k\275H\342%\276[L{\275\030\254M\276G\262\024>m\\\237\275\264\256\013\273\257\306<<,\336$\273x}!>\'\253\030\276V\222\204\276\377\307!\276\337\374\327\274\213/\334=\377n\002\276\021r-\275Mb:?.\267\211\2754~\234\276N\022\210\276\242\251\035\276\263\351\222\275\355nO=5\355\000\274\363(\034=\251&\211\276z\tg>8L\346>\363\353\333\271\005\203c>\031p\203=\024\025q>\312\370N>\375\177\371=\277\031\367\273\000\222\277=c\016\255<\351\323\033\275Q\0362>\354L\376\276.BE>\373\317\210>\250\002f=\245I \275\224{\240\276\3502\260=\202F/\276v\201\204\275\235H\274\274\210\001\206\2761\332y;\277\013_=\000\322\212><\357\357\274qr\257<5\326\275>\351\331\255=8\254\177\275\177\007j=\013\024$\275c`\345\2767\031T=\221G\272>\272_\"=\251\213\'\275\211\350h>0\027\331=_M\253\276O\251\007?\030/\331=^\004W>\366\253\232=\304\207\240\2751\032k>D\\\251>\031\250\316\275B\336\354\275\013E\247>\271\332\250>G\006.\276\210\376\202\274\231\350\203\276\302\2237\276\204\250\302\275\010\342\205\275\233+\004>MSO\276\206\334\215\275r\345;\274\022\3064<\225\250R\277\035\376\237>\360UD=\203\275\307;\225,A\276\034\"\221:r-\005\277\'\261->\347\021\241\276C\032\222:`\350\r?\257\257\234\275\317\323\260>\n\213\203?0\225\003>\300\312\004?\316\267\252=Z\256\001\277\234|\344=\251\200\037=\202\265\223>\204`\260=\275\036z\276\342\354\035>\365h(>\223\247_\274\320\215\017?\006\315\344\275\032C\261:\341(u\276\313us\276[\345\">y/\375>>`\000?ft\261\275\325\365\361\275\0330\t=\2119\277\275\273\"\210=\316E\315\275|\251U=}\223\211\275\320\251\323=\2723\254\275\\)n\275\365\021a>\250\347\370\275r\371,\275,\205\313\276x\233\300\276\230\3652\276=\266i>\262B\221\276\231:Y\275!\361\210\2759g\202\276u.3\276\364\302\230\276\264\014\237\275\371\375\024\276\372(\357\275x\343V\275r\310e\276J\025\321>\241$`\276b\373\360>\202\306\315\274\377\023\227\275\371\322\326=\276\372m\276rB\322=^jf=\357G\251\276P\024\230<\351\211\200\276\307\273\212<\017\335\216\274\333\203\004>\222{\232>\311;S>i\322^\276/\350e>\376\227\036?\036\250\'?\021\000[=z\330K=\024\326\361=\2528\356<\364A4\277\302Q\'>\241x\013\276\241\264\225>\017V;=\225\205_\2759\310\317>\331\310t\276\230v\031\276\304\230?=d\242\323;\000\272\201=\242\347\370<\200$C>+p\025\277[\010\232\275S\r5>?\206\343>\207\231k>\352\220x>\037\217\305<\3759;\276\276\326\016\2757/\324\275\0051P>\276^3>~-\331\274)Q\273\275\021\236\361\2755\305B\276j\337\030\276w\212\300<\374\3539>8\362\t\276{\375\254\274\r[\207\275\226\252\230=\204\242\206=\233\306\377\275c\030\244\275z\221\036\277\004\326\327=w;\220>\223\324\253\275\324U\251=\031\026T>\212\272\255\27404\305>\300?\'=,\240\346\274$\223\232\274\312!F\277\376\024\344\276d\014@>I\364\252>\375\037\335\275=\316\177>\240w\322=\232r\351\276/\221C\276\342$\007=\231\3743\276-\343O\275\027\025\345>\307$|>\np:\275\265 \352\276\365\201\307\276\005\212\337<\366\024T<D\356a\276\332tk>\305z,\275\314\035J\276O\245s\276\030\241\014>\n\332\354=\272\350\275\276\244\207\334>\260\3458?\367]\207\276v\305\r\276\351\312}<\3369\366=W(b>\000\004\306=\024\331A\275F$\252\274\237\2518>/t-?C\233\205\276P\364+\276\t\211[\276L\362\\>=\021O\276\201\025F\274\330;\177>X\364\261\276\335\335\235>O\231\013>\034\317!\276\252YK\275h\342?>aC >\020\364\222>ow\357\275\324\022\001?\216?\r=Y\001\007\275\034&\t>\337\324\301=\200\211\204\276q\327\246=\230\024\226\275\346)\241=\351\\\033?.\261\265<l\362\277\275l\273c\276\222\314\314\276*\267N>i\365\314>q\230z<5\330j\277F\361\223\276\211\375\206>l\327$\275\336\034\005\276\024=\202\275\271\003\236\276\356b`>\223>\212\275\016\256\222>\347\004\317=\322\t3<C\000j>:\230\025<\377Wl\273h\214\257\275\303\310 \275\261\177\274\276\344\322\270<\253\361\014\273\224j\226\276\345\310V\276g\266\247>6M\205\276m0\260\276\340\221\r>&M+\275HH\263>\"?\200>\243j\334\274hO\007>b\034\210>\275\026\225\276\253(\014\276\000P\333\276\026\235\223>\370\214z\276A\270\360=g\360\265<\237\354-\276\004\017\376=\217\347\313\275\272>\216>\014M>\276\247\235X\276\006/\250\273\261\022\230?\177\007\262=8)\204=yD\333\275\270\347,=\250\235\277>\000W\351\273\325\3563>\021\032b\274\255\316\021\277\023\202a\275\344\273\033?s\311`\275nR\222>A\212\357=\300oH\276\204#!>\361\002\312=\3042\201\276T&9=K\230\353=P\231\020<Jo\001>\205\305%\276\267\250\300=\334\210:>\264\241V;\031^\257=\374q3\276\306\177W\275\331\ti\276L\352P\27670\032?\213\243!>\363\273\226>\022~p=\217\"`\276\262\343\017>U\210\226\275\250\271\340\274\206\022]\276\261\373\273>\212\323\246\276\241Kp\275\3070:\276)\036\001\277\361\354\272>v\240\327\274\246Gc<\030N\325\276}\027\333\275\32764\276\362\211O\275\231\234\356\275\221\257\025<9\203\302\274\326\221\007?\332\272 \276\257\244u\275\241\r\250\275n\302\'\276\207\216\006\276\030\275\252\276}a\200>J\207\315\276\340\tB\276\266\313\005>\232y\311>\301\327\005\276\3320\024>\3178\033\275lDL\274\357\355P>hOs\276\224t\222=X&\251\276\007\246\207=\236\350\026\275\363\311\033\276\212M3?\3271V>]\216D>\324\263d;\251\272\277>;\226\310>\332@\305=\360\2304\276\'\036\240\275%\332==\314\263\005\277h\342\016\276\0074=>\340>\231>v-u\276A\240\r\276\000\361\016>\243\256\030\276\2013\260\275\224\343\024\275Y46\275\234[\253>s\227\201=f\306\232\275\225\232\177\276Nl<;20\207>2T+\274?\342^>]\311\222>\036\304r=\332\240\236\276\340\007O=3\3321\276\252\335\202>~\246\240>\304b`\275\356h\324\275]\203>?\314\rC=\262\224v\276\237#S\275\364\300\020\276\231\372$\276B\'\016>\020\275\n\275\217\274\364>h\233\370>^@\346\275\014!7\275m:s\277@J!\273\270\177\374=\261>\272\275\320-\377\274m\224F\2763\253.\275*\005\262\276\300\037K>\\\273\336=\372c\007;\341\243?\276\243\361/\2773\203\003?\213q\305>\226\3779>\031\244\257>\037\255\202=\017\361:\276\222R\306>\374\2674=\231\326\244\276KX8>A\377\036\276xq\r>\302\013->\351,Z\276\377\243o\276\037\272\376<y\022\300;\r\220>\276\270K\230=\206u\324=\314\201\344\274\234\376\002>\235\343N=\020\344\236\273\211\257\344\276C\242\217>\026\306y=\345i\030>\335\234\247\276q\355\373=\270\356u>\333\006\245>\215\302;>\335 